<pad>	0
</s>	0
<unk>	0
，	0
？	0
：	0
。	0
\n	0
\t	0
,	-2.27694
的	-3.91357
、	-4.0507
▁	-4.86599
和	-5.14921
在	-5.23003
是	-5.4324
年	-5.44467
”	-5.58179
“	-5.59314
)	-5.6042
:	-5.61362
(	-5.62145
了	-5.63404
?	-5.68696
;	-5.70426
》	-5.75859
为	-5.85279
有	-5.86261
人	-5.86682
中	-5.94469
与	-5.95935
等	-6.00935
《	-6.09179
月	-6.11032
我	-6.22371
上	-6.24438
大	-6.29613
!	-6.33555
不	-6.36717
对	-6.38546
以	-6.45669
后	-6.51122
一	-6.55703
他	-6.57345
1	-6.60645
及	-6.6327
而	-6.65034
2	-6.65531
到	-6.66184
3	-6.66389
时	-6.68623
小	-6.69276
日	-6.69344
将	-6.71388
被	-6.73158
也	-6.74913
你	-6.75229
从	-6.79483
中国	-6.8184
于	-6.82055
之	-6.84723
用	-6.84734
就	-6.85459
▁《	-6.87313
地	-6.8869
会	-6.88734
一个	-6.88884
或	-6.89058
来	-6.91089
下	-6.91127
都	-6.93042
4	-6.94453
5	-6.95515
多	-6.9825
水	-7.00982
她	-7.01443
工作	-7.02754
高	-7.03775
并	-7.04206
个	-7.0622
要	-7.06768
性	-7.06861
新	-7.08527
10	-7.09068
公司	-7.09557
子	-7.10979
可	-7.11835
说	-7.12038
三	-7.12085
天	-7.14293
但	-7.16251
其	-7.16333
长	-7.17069
好	-7.17145
里	-7.18497
由	-7.18618
-	-7.19008
6	-7.19509
可以	-7.20144
市	-7.20951
出	-7.2216
去	-7.23402
·	-7.23582
我们	-7.23712
自己	-7.24081
7	-7.25322
能	-7.25853
这	-7.26829
家	-7.27187
过	-7.28293
.	-7.30945
8	-7.31095
进行	-7.31471
着	-7.32467
点	-7.32649
名	-7.32756
无	-7.3295
服务	-7.34262
山	-7.34969
区	-7.3513
者	-7.3534
前	-7.35958
还	-7.36975
没有	-7.37121
生	-7.38926
所	-7.39856
本	-7.40387
又	-7.40916
企业	-7.42171
这个	-7.43213
内	-7.43526
成	-7.44738
9	-7.45068
学	-7.4547
最	-7.46679
就是	-7.46935
把	-7.47051
心	-7.47456
路	-7.49289
以及	-7.49334
分	-7.50131
技术	-7.50549
/	-7.51487
看	-7.5179
文	-7.52167
得	-7.53438
如	-7.5346
更	-7.54432
金	-7.55621
设计	-7.55635
县	-7.55898
头	-7.56701
产品	-7.56701
王	-7.57156
通过	-7.57518
花	-7.5783
法	-7.58088
12	-7.58126
元	-7.5814
做	-7.58416
至	-7.59089
20	-7.59788
很	-7.60785
但是	-7.611
二	-7.61178
他们	-7.61475
管理	-7.61876
问题	-7.6197
该	-7.61975
因为	-7.6299
还是	-7.6332
系统	-7.63367
吧	-7.64033
自	-7.65181
》、《	-7.65739
当	-7.65782
发展	-7.66109
使用	-7.66352
向	-7.6659
道	-7.67203
比	-7.67569
车	-7.67653
化	-7.67897
外	-7.68205
部	-7.68715
国家	-7.68783
开	-7.68828
想	-7.68976
吗	-7.69105
海	-7.70191
研究	-7.70292
教育	-7.7054
让	-7.70642
<	-7.70705
>	-7.71252
机	-7.71757
国	-7.7233
西	-7.72534
米	-7.72867
学校	-7.73044
大学	-7.73543
两	-7.73622
行	-7.74394
发	-7.74591
万	-7.74844
再	-7.74999
号	-7.7545
的时候	-7.76693
德	-7.77009
克	-7.77106
专业	-7.77152
四	-7.77369
书	-7.77545
生活	-7.77669
美	-7.78044
所以	-7.78322
城	-7.7858
作者是	-7.78802
其中	-7.79646
爱	-7.79798
C	-7.7999
时间	-7.79999
白	-7.80349
线	-7.80362
eop	-7.8057
学习	-7.8065
给	-7.81112
东	-7.81133
11	-7.81594
都是	-7.81788
老	-7.81875
项目	-7.82053
马	-7.82761
门	-7.82817
风	-7.82864
网	-7.83039
那	-7.83334
面	-7.83426
打	-7.83752
张	-7.83888
龙	-7.84546
神	-7.85216
国际	-7.85974
村	-7.86041
它	-7.86174
文化	-7.86424
世界	-7.8666
已	-7.86664
起	-7.86731
作为	-7.86778
提供	-7.86869
30	-7.87006
南	-7.87473
全	-7.87513
光	-7.88256
开始	-7.88483
游戏	-7.88831
活动	-7.88843
手	-7.89042
体	-7.89126
如果	-7.89651
正	-7.90025
已经	-7.90271
五	-7.90314
成为	-7.90356
却	-7.90395
美国	-7.90422
现在	-7.90454
安	-7.90932
的人	-7.91018
市场	-7.91251
红	-7.91685
加	-7.9179
式	-7.92165
啊	-7.92537
这些	-7.93187
需要	-7.93547
图	-7.93602
呢	-7.93958
女	-7.94098
平	-7.9423
经	-7.94284
经济	-7.94462
信息	-7.95295
石	-7.95362
明	-7.95525
使	-7.96032
重	-7.9614
华	-7.96578
科	-7.96892
一些	-7.97028
入	-7.97899
具有	-7.98032
气	-7.98038
组织	-7.98171
同时	-7.98188
:“	-7.98235
15	-7.98687
主要	-7.99233
特	-7.99351
清	-7.99393
A	-7.99646
林	-7.99702
工程	-7.99895
也是	-8.00271
亩	-8.00445
力	-8.00676
型	-8.01296
各	-8.01461
李	-8.01483
第	-8.02282
口	-8.02397
各种	-8.02444
因	-8.0255
斯	-8.02772
原	-8.03039
事	-8.032
位于	-8.03798
类	-8.04038
拉	-8.04224
中心	-8.04254
带	-8.04493
卡	-8.04609
什么	-8.04653
黄	-8.04778
包括	-8.05091
镇	-8.05444
没	-8.0569
同	-8.07206
学生	-8.07632
先	-8.07936
之后	-8.08195
不是	-8.08302
目前	-8.08745
台	-8.0888
处	-8.08906
达	-8.09427
度	-8.09462
位	-8.09806
局	-8.09934
总	-8.10067
方	-8.10489
北京	-8.10493
或者	-8.10629
数	-8.10875
则	-8.10898
只	-8.11174
省	-8.11353
太	-8.1143
对于	-8.11509
社会	-8.11575
网络	-8.11977
公里	-8.1199
军	-8.12217
通	-8.12283
建设	-8.12646
单	-8.127
"	-8.12854
免费	-8.12873
全国	-8.1313
B	-8.13162
发现	-8.13264
色	-8.13304
——	-8.13335
黑	-8.13357
站	-8.13398
作	-8.13438
选择	-8.13504
任	-8.13933
拥有	-8.14252
次	-8.14572
如何	-8.14575
生产	-8.14762
云	-8.14849
系	-8.15046
万元	-8.15351
北	-8.15708
很多	-8.15787
字	-8.15835
还有	-8.15909
主	-8.163
这种	-8.16372
第一	-8.17151
户	-8.17402
18	-8.17404
河	-8.17441
油	-8.17514
种	-8.17622
片	-8.18392
利	-8.18682
强	-8.1885
版	-8.19419
品牌	-8.19563
自己的	-8.19567
集	-8.19578
吃	-8.19876
男	-8.20079
s	-8.20496
进	-8.20596
城市	-8.20663
要求	-8.20909
即	-8.21026
干	-8.21102
应	-8.21211
非	-8.2134
17	-8.21351
期	-8.21379
此	-8.21403
投资	-8.21515
叶	-8.21611
热	-8.21673
双	-8.22151
病	-8.22239
比较	-8.22462
那么	-8.22542
才	-8.22704
日本	-8.2277
设备	-8.22822
不能	-8.22893
之一	-8.23189
而且	-8.232
约	-8.2328
级	-8.23511
行业	-8.24447
根据	-8.2462
岁	-8.24683
科技	-8.24717
内容	-8.24776
环境	-8.252
火	-8.25368
能力	-8.25572
中的	-8.25838
获得	-8.26106
制	-8.26117
不同	-8.26189
S	-8.26227
安全	-8.26371
然后	-8.26435
善	-8.26466
回	-8.2657
州	-8.26645
走	-8.26784
为了	-8.27111
近	-8.27178
非常	-8.27403
量	-8.27493
相	-8.27673
乡	-8.27877
流	-8.28627
控制	-8.28753
师	-8.28848
器	-8.29032
这样	-8.29162
连	-8.2946
D	-8.29632
销售	-8.2995
地区	-8.29984
江	-8.30052
钱	-8.30054
死	-8.30638
鱼	-8.30645
方法	-8.30805
罗	-8.30867
功能	-8.30974
间	-8.30991
上海	-8.31017
低	-8.31345
公	-8.31375
管	-8.31493
周	-8.31577
部分	-8.31616
们	-8.31714
真	-8.31956
由于	-8.32257
表示	-8.32544
电	-8.32633
编辑	-8.3268
可能	-8.32861
分析	-8.33246
平台	-8.33482
请	-8.33517
队	-8.33556
一般	-8.33623
共	-8.33819
放	-8.3399
古	-8.34212
开发	-8.34227
提高	-8.34231
皮	-8.3445
条	-8.34835
50	-8.34869
建	-8.35252
其他	-8.35636
艺术	-8.35831
大家	-8.35886
称	-8.35917
场	-8.35926
16	-8.36097
孩子	-8.36199
所有	-8.36521
作品	-8.36593
曾	-8.36745
公司经营范围包括	-8.36815
青	-8.36879
负责	-8.37381
飞	-8.37557
变	-8.37667
阿	-8.37928
每	-8.38047
手机	-8.38124
教	-8.38297
世	-8.38475
看到	-8.38601
写	-8.38698
方面	-8.38699
情	-8.38724
深	-8.38802
木	-8.38937
眼	-8.3897
工	-8.38979
见	-8.39309
K	-8.39541
乐	-8.39571
受	-8.39791
政府	-8.39803
系列	-8.40288
电影	-8.40414
像	-8.40513
身	-8.40574
能够	-8.40781
采用	-8.41089
跟	-8.41177
六	-8.41528
不过	-8.41691
陈	-8.41825
虽然	-8.42051
喜欢	-8.42096
支持	-8.42139
奖	-8.42206
球	-8.42362
转	-8.42914
教学	-8.43231
P	-8.43272
组	-8.43301
个人	-8.43774
标准	-8.43896
业务	-8.43994
节	-8.4403
科学	-8.44172
方式	-8.44327
影响	-8.44521
边	-8.44559
尔	-8.44716
星	-8.44861
建筑	-8.45208
最后	-8.45293
2016	-8.45541
只有	-8.45542
香	-8.45544
超	-8.4558
—	-8.45665
宝	-8.45728
历史	-8.4591
进入	-8.46089
选	-8.46127
汽车	-8.46139
信	-8.46201
传	-8.46322
实现	-8.46539
房	-8.46695
为什么	-8.46755
处理	-8.4682
25	-8.47127
学院	-8.47189
2015	-8.47289
合作	-8.47394
旅游	-8.47503
卷	-8.47808
希望	-8.48102
G	-8.48143
感	-8.48172
声	-8.48247
报	-8.48308
应用	-8.48365
「	-8.48381
少	-8.4848
快	-8.48664
半	-8.48953
指	-8.49034
因此	-8.49124
其实	-8.49449
立	-8.49468
这是	-8.49477
战	-8.49573
空	-8.49641
买	-8.49825
远	-8.49841
定	-8.49852
参加	-8.49878
一样	-8.49946
获	-8.49955
单位	-8.49985
觉得	-8.50015
计划	-8.50371
关系	-8.50438
直接	-8.50461
问	-8.50521
基	-8.50581
合	-8.50802
100	-8.50935
只是	-8.51015
故事	-8.51017
人员	-8.5148
关于	-8.51538
国内	-8.51787
阳	-8.51832
m	-8.51882
语	-8.51886
物	-8.51942
八	-8.52065
一下	-8.52154
」	-8.523
毛	-8.52407
用户	-8.52477
2010	-8.52493
基本	-8.52575
软件	-8.52768
均	-8.52935
章	-8.53041
一起	-8.53251
按	-8.53302
亚	-8.53415
史	-8.53584
率	-8.53644
认为	-8.53761
别	-8.53865
关注	-8.54
】	-8.54069
本书	-8.54144
M	-8.54323
不要	-8.54327
T	-8.54635
状	-8.54651
完成	-8.54774
保护	-8.55031
出现	-8.55213
制作	-8.55266
13	-8.55353
健康	-8.55619
24	-8.55829
难	-8.56003
七	-8.56063
刘	-8.56064
属	-8.56185
未	-8.56267
商	-8.5633
14	-8.56507
班	-8.56585
田	-8.5664
血	-8.56649
药	-8.56846
层	-8.57038
以上	-8.57059
2014	-8.57062
现代	-8.57112
专家	-8.57257
业	-8.57278
一直	-8.57321
民	-8.57398
音乐	-8.57521
包	-8.57583
成功	-8.57609
菜	-8.57666
材料	-8.57758
动	-8.57792
某	-8.57883
教师	-8.58209
创新	-8.58274
第二	-8.5834
”、“	-8.58559
九	-8.58605
装	-8.58661
小说	-8.58708
儿	-8.58714
作者	-8.58745
......	-8.58886
情况	-8.59088
40	-8.59135
画	-8.59146
分钟	-8.59206
店	-8.59212
朋友	-8.59455
结构	-8.59543
调	-8.59568
知识	-8.59645
诗	-8.59655
武	-8.59904
发生	-8.60071
楼	-8.60211
室	-8.60226
首	-8.60279
感觉	-8.60413
百	-8.60784
团	-8.6089
数据	-8.61335
汉	-8.61412
0	-8.61483
酒	-8.61623
了解	-8.6163
板	-8.61684
自然	-8.61847
模式	-8.61927
你的	-8.61993
盘	-8.62077
是一个	-8.62206
茶	-8.62217
布	-8.62309
运动	-8.62423
读	-8.6246
指导	-8.62473
老师	-8.62544
日在	-8.62588
利用	-8.62618
一种	-8.6273
机构	-8.62762
春	-8.62903
帮助	-8.62926
听	-8.62962
应该	-8.62969
篇	-8.63147
粉	-8.63196
一次	-8.63475
玉	-8.63493
肉	-8.63556
集团	-8.64384
操作	-8.64584
L	-8.64641
怎么	-8.64903
表	-8.64921
源	-8.64954
草	-8.64965
品	-8.64968
介绍	-8.65052
形	-8.65054
谁	-8.6514
得到	-8.65239
且	-8.65418
直	-8.65477
两个	-8.65527
常	-8.65581
取	-8.65593
价格	-8.65593
相关	-8.65722
玩	-8.65773
微	-8.65834
论	-8.65948
求	-8.66052
之前	-8.6611
作用	-8.66191
代	-8.66222
银行	-8.66595
医院	-8.66643
派	-8.66705
电子	-8.66729
你们	-8.66825
现	-8.66844
资源	-8.66854
送	-8.67084
【	-8.6737
21	-8.67442
有关	-8.67478
甚至	-8.67553
波	-8.67636
塔	-8.67657
网站	-8.67962
格	-8.68056
的话	-8.68345
基础	-8.68395
若	-8.68462
经营	-8.68465
经过	-8.68572
是一款	-8.68607
特别	-8.68652
综合	-8.68708
食	-8.69038
产业	-8.69149
铁	-8.69249
家庭	-8.69255
空间	-8.69382
他的	-8.69383
官	-8.69482
60	-8.69485
以后	-8.69584
比如	-8.69684
言	-8.69836
这一	-8.69866
便	-8.6997
治疗	-8.7011
群	-8.70247
结果	-8.70279
19	-8.70312
修	-8.70369
F	-8.70402
果	-8.70467
费	-8.70478
不断	-8.70571
桥	-8.70633
志	-8.70666
初	-8.70763
树	-8.70883
意	-8.71347
有限公司	-8.71447
土	-8.71465
1.	-8.71684
培训	-8.71846
校	-8.71997
收	-8.72087
赛	-8.72103
那些	-8.72302
从事	-8.7238
2009	-8.72395
质量	-8.72513
台湾	-8.72645
街	-8.72736
杨	-8.72738
达到	-8.72831
加入	-8.73032
满	-8.73141
交	-8.73219
决定	-8.7322
权	-8.73378
创作的网络小说	-8.7338
梦	-8.73677
2012	-8.73724
不会	-8.73908
考	-8.74033
夜	-8.74106
住	-8.74125
H	-8.7419
2011	-8.74363
并且	-8.74409
继续	-8.74515
广	-8.74653
联	-8.74703
参与	-8.74816
理论	-8.75058
雪	-8.75203
界	-8.75305
属于	-8.7533
巴	-8.7535
关	-8.75377
效果	-8.75396
今天	-8.75491
增加	-8.75569
2.	-8.75593
讲	-8.75605
精神	-8.75621
落	-8.75635
全面	-8.75664
项	-8.75764
奇	-8.75821
当时	-8.75821
据	-8.75957
酒店	-8.7606
您	-8.76182
努力	-8.76282
兵	-8.76305
后来	-8.76352
叫	-8.76365
之间	-8.76395
推荐	-8.7663
院	-8.76846
几	-8.76882
规划	-8.76913
我的	-8.76931
完全	-8.77024
提	-8.77485
易	-8.7756
工业	-8.77591
除了	-8.77661
园	-8.77724
～	-8.77751
沙	-8.77777
英语	-8.77884
牛	-8.78145
越	-8.78177
政策	-8.78229
香港	-8.78247
26	-8.78281
员	-8.78327
具	-8.78365
圣	-8.78382
灵	-8.78668
湖	-8.78731
交流	-8.78752
是否	-8.78807
短	-8.78812
冷	-8.78818
考试	-8.78819
金融	-8.7889
水平	-8.78896
角	-8.79014
2013	-8.7914
80	-8.79226
28	-8.79334
阅读	-8.79633
欢迎使用	-8.79741
反	-8.79784
音	-8.7982
的词条内容	-8.79847
由网友共同	-8.79848
本人词条	-8.7985
百度百科内容	-8.7985
如您发现自己	-8.79851
不准确或不完	-8.79853
参与修正	-8.79853
改	-8.79855
编辑服务	-8.79929
段	-8.80136
社区	-8.80146
N	-8.80147
22	-8.80363
苏	-8.80522
必须	-8.80562
记	-8.80679
记者	-8.80718
目标	-8.80749
2008	-8.80909
形成	-8.81105
岛	-8.81211
客户	-8.81296
真的	-8.81403
较	-8.81458
兰	-8.81464
刚	-8.81566
雨	-8.81749
套	-8.81774
X	-8.8197
建议	-8.82061
座	-8.82141
领域	-8.82244
厂	-8.82348
重点	-8.82468
来说	-8.82515
优秀	-8.82525
纳	-8.82587
极	-8.8271
款	-8.82732
起来	-8.82798
)、	-8.83073
精	-8.83113
无法	-8.8316
R	-8.83281
+	-8.83298
23	-8.83363
除	-8.83742
...	-8.83888
知	-8.83926
期间	-8.84115
差	-8.84379
题	-8.84561
体验	-8.84624
福	-8.84629
厘米	-8.84638
雷	-8.84668
游	-8.84706
传统	-8.8479
宽	-8.84902
上的	-8.84904
g	-8.85054
十	-8.85097
开展	-8.85106
最终	-8.8517
办	-8.85172
建立	-8.85298
根	-8.85354
英	-8.85369
养	-8.85389
V	-8.85406
压	-8.85619
接	-8.85787
语言	-8.85788
新闻	-8.85873
质	-8.86035
维	-8.86112
代表	-8.86222
地方	-8.86278
解决	-8.86336
k	-8.8641
底	-8.86432
制造	-8.86443
穿	-8.86531
E	-8.86536
儿童	-8.86767
一点	-8.8698
法定代表人	-8.87016
找	-8.87095
人才	-8.87239
2000	-8.87264
理	-8.87265
尼	-8.87286
千	-8.87435
全球	-8.87549
夫	-8.87636
今	-8.87692
广告	-8.87796
余	-8.87865
松	-8.87965
法律	-8.88016
宗	-8.88019
离	-8.88066
客	-8.88123
治	-8.88199
骨	-8.88293
义	-8.8833
值	-8.88404
现场	-8.88469
倒	-8.88476
结合	-8.88512
笔	-8.88558
解	-8.88605
W	-8.88713
时代	-8.88798
盐	-8.88868
证	-8.8894
教授	-8.88949
女性	-8.89017
团队	-8.89074
杀	-8.89101
歌	-8.89116
伤	-8.89165
视频	-8.89316
有些	-8.89333
重要	-8.8943
准备	-8.89444
价值	-8.8947
任何	-8.89475
居	-8.89767
词	-8.89969
早	-8.90024
文学	-8.90059
实施	-8.90089
先生	-8.90213
有限公司于	-8.90256
切	-8.90296
坚持	-8.90392
何	-8.9043
交通	-8.9045
共同	-8.90551
行为	-8.90628
到了	-8.90792
别人	-8.90874
宁	-8.90901
今年	-8.90925
运	-8.90996
夏	-8.91267
君	-8.91315
接受	-8.91379
出来	-8.914
当然	-8.91416
曲	-8.91513
人们	-8.91564
活	-8.91636
保	-8.91761
令	-8.91841
~	-8.91842
轮	-8.9194
2006	-8.92049
博	-8.92102
条件	-8.92161
也有	-8.92181
加工	-8.92258
吴	-8.9235
兴	-8.9255
回答	-8.92603
人物	-8.92613
拍	-8.92815
更加	-8.92842
经验	-8.92859
提升	-8.929
笑	-8.92989
话	-8.93124
知道	-8.93198
鸡	-8.93199
蓝	-8.93376
然	-8.93402
排	-8.9368
课	-8.93789
左右	-8.93805
价	-8.93848
剑	-8.94116
刀	-8.94132
股	-8.94216
足	-8.94225
破	-8.94225
商业	-8.94298
父母	-8.94637
圆	-8.94677
交易	-8.94736
2007	-8.94753
景	-8.94805
27	-8.94866
全部	-8.94897
可是	-8.94965
才能	-8.95069
永	-8.95156
氏	-8.9519
互联网	-8.95241
中学	-8.95263
来自	-8.95325
未来	-8.95354
);	-8.95581
汤	-8.96043
200	-8.96345
按照	-8.96358
川	-8.96439
保持	-8.96447
每天	-8.9648
面积	-8.96488
牌	-8.96529
3.	-8.96549
占	-8.96569
中央	-8.96645
即可	-8.96709
实	-8.96709
结	-8.96764
朝	-8.96789
宫	-8.96875
训练	-8.96962
O	-8.96982
是什么	-8.97135
课程	-8.97185
那个	-8.9723
农业	-8.97453
亦	-8.97495
协会	-8.97596
小学	-8.97607
资料	-8.97636
普	-8.97684
丝	-8.97707
的问题	-8.97752
毫米	-8.97806
换	-8.97818
产生	-8.97838
族	-8.97855
事件	-8.97997
为主	-8.98008
另外	-8.9801
简单	-8.98115
件	-8.98123
时尚	-8.98136
不知道	-8.98157
90	-8.98269
积极	-8.98277
普通	-8.9837
甲	-8.98462
人民	-8.98634
英国	-8.98712
制度	-8.98904
调查	-8.98966
奥	-8.99184
经常	-8.99242
自由	-8.9943
绿	-8.99474
故	-8.99574
唐	-8.99628
影	-8.99718
复	-8.99896
距离	-8.99913
改变	-8.99987
端	-9.00018
思想	-9.00063
整个	-9.00163
恩	-9.00194
补	-9.00323
往	-9.00344
思	-9.00368
正式	-9.00637
安装	-9.0076
环	-9.00847
题主	-9.0094
梅	-9.00948
超过	-9.0116
体系	-9.01259
电视	-9.01391
秀	-9.01538
防	-9.01553
归	-9.01624
随着	-9.01799
资金	-9.01814
库	-9.01852
是一种	-9.01947
咨询	-9.01952
留	-9.02009
分别	-9.02019
堂	-9.02036
体育	-9.02265
存在	-9.02352
剂	-9.02461
受到	-9.02484
副	-9.02493
生物	-9.02495
泰	-9.02637
理解	-9.02762
坐	-9.02856
人类	-9.02896
块	-9.02924
比赛	-9.02975
士	-9.02988
藏	-9.03147
人生	-9.03172
y	-9.03229
政治	-9.03325
快速	-9.03325
跑	-9.03436
这样的	-9.03512
我国	-9.03591
展	-9.03651
食品	-9.03804
配	-9.03861
十分	-9.03975
细	-9.04049
出版社出版的图书	-9.04122
拿	-9.04245
衣	-9.04427
促进	-9.04585
党	-9.04597
部门	-9.04728
教材	-9.04793
都有	-9.04824
计算机	-9.04906
含	-9.04973
命	-9.05049
2017	-9.05267
培养	-9.05293
料	-9.05409
区域	-9.05543
味	-9.05561
丁	-9.05581
莫	-9.05676
秋	-9.05699
这么	-9.05828
随	-9.05856
胜	-9.059
冰	-9.05991
谈	-9.06163
顶	-9.06181
是由	-9.06339
过程	-9.06615
亲	-9.0668
领导	-9.06705
靠	-9.06766
----------------	-9.06876
吉	-9.0688
的故事	-9.06925
轻	-9.06971
如此	-9.07025
发布	-9.07054
乱	-9.07075
收入	-9.07079
风格	-9.0712
职业	-9.07131
民族	-9.0714
酸	-9.07252
方便	-9.0728
最近	-9.07327
第三	-9.07429
各类	-9.07442
掉	-9.07467
媒体	-9.07541
等等	-9.07562
野	-9.07576
检查	-9.07736
电脑	-9.07883
会议	-9.0789
需求	-9.07927
机械	-9.07979
500	-9.07992
绝	-9.08006
》(	-9.08061
医学	-9.08192
出版	-9.08207
尾	-9.0822
伊	-9.08246
视	-9.08247
软	-9.08347
提出	-9.08364
自动	-9.0841
银	-9.08436
脚	-9.08439
许多	-9.08481
赵	-9.08524
设	-9.08528
特色	-9.08676
仙	-9.08742
每个	-9.0875
然而	-9.08963
峰	-9.09003
n	-9.09027
完	-9.09027
正在	-9.09091
29	-9.09098
封	-9.09112
分享	-9.09131
雅	-9.09161
青年	-9.09199
2005	-9.0928
灯	-9.09294
担任	-9.09397
馆	-9.09568
更多	-9.09878
盛	-9.09958
糖	-9.09959
背	-9.10041
产	-9.10087
案	-9.1019
表现	-9.10195
植物	-9.1022
母	-9.10256
具体	-9.10395
大型	-9.10412
独立	-9.10635
原因	-9.10688
运行	-9.10688
卖	-9.10751
联系	-9.10754
照	-9.1078
港	-9.10785
)》	-9.10951
有什么	-9.11332
一切	-9.11381
过程中	-9.11386
旧	-9.1151
抗	-9.11533
纸	-9.11569
散	-9.11716
富	-9.11736
康	-9.1174
动物	-9.11742
编	-9.11764
b	-9.11786
长期	-9.11819
70	-9.11865
用于	-9.11876
身体	-9.11919
成立	-9.11933
电话	-9.11951
适合	-9.12037
异	-9.12197
政	-9.12215
彩	-9.12274
小时	-9.12357
农	-9.12396
圈	-9.12767
盖	-9.12776
方向	-9.12843
丽	-9.12854
魔	-9.12855
社	-9.12897
的地方	-9.12922
首先	-9.13017
剧	-9.13033
温	-9.13225
任务	-9.13249
数学	-9.13304
移动	-9.13334
推	-9.13336
变化	-9.13413
服	-9.13424
诺	-9.13448
算	-9.13488
缘	-9.1359
委员会	-9.13842
韩国	-9.13842
宋	-9.13972
就会	-9.14016
调整	-9.14144
孙	-9.14147
只能	-9.14152
查	-9.14178
组成	-9.14194
实验	-9.14198
瑞	-9.14208
农村	-9.14271
著名	-9.14285
退	-9.14292
冲	-9.14294
胡	-9.14413
平方米	-9.14514
曾经	-9.14631
朱	-9.14662
1、	-9.14669
时期	-9.14721
只要	-9.14743
断	-9.14902
保证	-9.15042
目	-9.15191
贵	-9.15197
的是	-9.15282
素	-9.15297
寒	-9.15444
推广	-9.15504
错	-9.15538
d	-9.15557
爱情	-9.15573
宣传	-9.15628
不仅	-9.15668
步	-9.157
世纪	-9.15763
尽	-9.15822
临	-9.15875
待	-9.15893
执行	-9.15907
显示	-9.15921
狗	-9.15929
仅	-9.15952
这里	-9.15992
威	-9.16122
现任	-9.16155
让人	-9.16286
创	-9.16501
亿元	-9.16513
佛	-9.16537
J	-9.16559
》《	-9.16597
有效	-9.16598
洛	-9.16682
杯	-9.16705
营销	-9.16784
翻	-9.16988
读者	-9.17041
望	-9.17097
阶段	-9.17813
的发展	-9.18006
学会	-9.18028
苦	-9.18164
东西	-9.18239
x	-9.18279
有人	-9.18396
脸	-9.18427
观	-9.1845
不好	-9.18538
申请	-9.18603
鲁	-9.18647
联合	-9.18649
失	-9.18661
人口	-9.18746
医生	-9.1877
更新	-9.18864
c	-9.18923
掌握	-9.18949
招	-9.19019
状态	-9.19033
高中	-9.19052
一个人	-9.19058
购买	-9.19072
智能	-9.19125
加强	-9.19146
阴	-9.19154
印	-9.19353
基金	-9.19359
2004	-9.19396
文明	-9.19426
创作	-9.19429
平方公里	-9.19496
女人	-9.19761
导致	-9.19853
及其	-9.19919
U	-9.19955
倍	-9.1996
德国	-9.19995
么	-9.20077
存	-9.20082
齐	-9.20097
皮肤	-9.2012
细胞	-9.20166
第一次	-9.20225
礼	-9.20231
森	-9.20245
心理	-9.20254
报告	-9.20431
投	-9.20587
本人	-9.20592
纯	-9.20705
于是	-9.20763
仁	-9.20784
液	-9.20789
卫生	-9.20811
成绩	-9.20819
创业	-9.20875
升	-9.2088
舞	-9.20889
设置	-9.21047
让你	-9.21075
绿色	-9.21089
高级	-9.21129
天下	-9.21228
是不是	-9.21301
痛	-9.21313
文件	-9.21329
谷	-9.21396
毕业	-9.21419
核	-9.21495
微信	-9.21497
猫	-9.21516
压力	-9.21562
t	-9.21565
打造	-9.21568
梁	-9.21681
左	-9.2171
都会	-9.21721
岩	-9.21754
p	-9.21781
突然	-9.21837
顺	-9.21969
a	-9.21972
追	-9.22054
呈	-9.22216
员工	-9.22295
哈	-9.22344
硬	-9.22443
面对	-9.22582
玩家	-9.22622
兼	-9.22678
经典	-9.22681
亿	-9.22682
我是	-9.22718
瓦	-9.22754
丰富	-9.22804
工艺	-9.22819
托	-9.22843
列	-9.22862
施工	-9.22892
放入	-9.22902
检测	-9.22926
说明	-9.22944
标	-9.22975
鬼	-9.23085
享受	-9.23089
有点	-9.2312
参考	-9.23214
洞	-9.23483
进一步	-9.23522
女生	-9.23523
测试	-9.23542
竹	-9.23562
守	-9.23667
明显	-9.23744
船	-9.23797
注	-9.23833
改革	-9.23868
洗	-9.23904
末	-9.24114
好的	-9.24142
脑	-9.24157
专	-9.24245
在一起	-9.24263
找到	-9.24356
啦	-9.24459
支	-9.2455
实际	-9.24695
不可	-9.24825
举	-9.24986
假	-9.25002
化学	-9.25058
性能	-9.25108
成本	-9.25112
基地	-9.25117
300	-9.25134
喜	-9.25146
哦	-9.25153
友	-9.25155
总是	-9.25278
韩	-9.25284
票	-9.25349
注意	-9.25359
增	-9.25424
造成	-9.25434
税	-9.25478
商品	-9.25481
几个	-9.25496
2003	-9.25543
有哪些	-9.25703
工具	-9.25801
进行了	-9.25821
i	-9.25955
并不	-9.26011
妈妈	-9.26128
2、	-9.2613
庄	-9.26162
持续	-9.2628
溪	-9.26286
寺	-9.26288
针对	-9.26507
贴	-9.2652
营	-9.26523
她的	-9.26564
的一个	-9.26601
运营	-9.26602
连续	-9.26611
一年	-9.26679
技能	-9.26727
浅	-9.26745
形式	-9.26779
届	-9.26857
有着	-9.27108
男人	-9.27166
研发	-9.27177
节目	-9.27398
整体	-9.27443
而是	-9.27451
范围	-9.27496
想要	-9.27505
年代	-9.27558
厚	-9.27603
货	-9.27625
密	-9.27678
以来	-9.27681
试	-9.2778
取得	-9.27787
同学	-9.27917
烟	-9.27929
一定	-9.27965
晚	-9.27973
委	-9.28022
供	-9.28034
帝	-9.28093
31	-9.28129
速	-9.28231
孔	-9.2824
既	-9.28249
消费	-9.2832
徐	-9.2846
er	-9.28483
戏	-9.28499
满足	-9.28535
优势	-9.28621
独	-9.28646
一位	-9.28734
的小	-9.28789
领	-9.28807
横	-9.2883
最大的	-9.28871
良	-9.29019
钢	-9.29032
以下	-9.29082
生态	-9.29182
规范	-9.29329
静	-9.29334
规定	-9.29339
大量	-9.29352
一场	-9.29402
主题	-9.2941
许	-9.29467
佳	-9.2973
术	-9.29747
架	-9.2976
成员	-9.29815
事业	-9.29842
》:“	-9.29977
再次	-9.30078
紫	-9.30102
井	-9.30159
智	-9.30209
整	-9.30251
相信	-9.3027
府	-9.30283
施	-9.30412
欧洲	-9.30415
娱乐	-9.30529
容易	-9.30559
毒	-9.30758
丹	-9.3081
反应	-9.30814
设施	-9.3084
广州	-9.30898
虎	-9.30932
偏	-9.30987
讨论	-9.31043
零	-9.31057
实践	-9.3106
虫	-9.31072
35	-9.31094
厅	-9.31103
保障	-9.31208
问答社区	-9.31294
从而	-9.31383
校园	-9.31487
经历	-9.31623
技巧	-9.31663
降	-9.31671
演员	-9.31684
让我	-9.31838
程序	-9.31882
载	-9.31919
不同的	-9.31952
论文	-9.31976
减少	-9.31993
先后	-9.32089
大陆	-9.32106
熟	-9.32122
塞	-9.32127
这个问题	-9.32147
位置	-9.32193
战争	-9.3232
环保	-9.32363
严重	-9.32368
跳	-9.32461
迪	-9.32567
文章	-9.32574
优	-9.32664
商务	-9.32692
方案	-9.32712
I	-9.32883
山东	-9.32944
我觉得	-9.32949
暗	-9.32974
点击	-9.33033
法国	-9.33044
程	-9.33079
速度	-9.33132
记录	-9.33195
带来	-9.33265
战略	-9.33321
0.00	-9.33361
正常	-9.3356
评价	-9.33579
群众	-9.33722
练	-9.33728
此外	-9.33857
成长	-9.33926
三个	-9.34003
数字	-9.34057
美术	-9.34084
鸟	-9.34097
对方	-9.34129
杰	-9.34166
广东	-9.34189
稳定	-9.34249
真正	-9.34498
重新	-9.34533
弹	-9.34591
唱	-9.34724
烧	-9.34762
耳	-9.34809
及时	-9.34849
是指	-9.34898
过去	-9.34898
略	-9.34905
解释	-9.34998
增长	-9.34999
京	-9.35019
的生活	-9.35092
人的	-9.35126
饭	-9.35358
侧	-9.3541
以前	-9.35538
新的	-9.35573
4.	-9.35817
伯	-9.35835
年底	-9.35881
是个	-9.36096
也不	-9.36164
也可以	-9.36178
索	-9.36237
它们	-9.36241
停	-9.3631
mm	-9.36417
追求	-9.36544
丰	-9.36562
引	-9.36603
轻松	-9.36701
内部	-9.36738
力量	-9.3692
谢	-9.36927
羊	-9.36992
鲜	-9.37038
斗	-9.37116
运用	-9.37127
贝	-9.37164
是在	-9.37254
最高	-9.37263
尚	-9.37564
荣	-9.3762
众	-9.37803
风险	-9.37875
晓	-9.3788
推动	-9.38044
亮	-9.38121
规模	-9.38123
脱	-9.38173
表面	-9.38181
答案	-9.38291
医疗	-9.38345
粗	-9.38414
登	-9.38419
展示	-9.386
蒙	-9.38659
统一	-9.38725
铁路	-9.38758
疾病	-9.38902
的东西	-9.39062
致	-9.39085
2002	-9.39149
维护	-9.39194
主持	-9.3926
生命	-9.3939
车辆	-9.39487
卫	-9.3954
膜	-9.39545
做好	-9.39596
消费者	-9.39609
终于	-9.3972
雄	-9.39837
提供了	-9.39944
h	-9.40014
通常	-9.40019
图片	-9.40172
代理	-9.40219
]	-9.40219
的事情	-9.40231
需	-9.40293
行政	-9.40319
枪	-9.40373
喝	-9.4049
学术	-9.4063
摄影	-9.40633
粒	-9.40635
患者	-9.40818
南京	-9.4086
学科	-9.40922
到底	-9.40977
依	-9.4102
宝宝	-9.4104
评论	-9.41074
种植	-9.4108
季	-9.41134
理念	-9.41183
Y	-9.41222
计	-9.41255
胸	-9.41321
承担	-9.41383
特点	-9.41543
哪	-9.4157
深圳	-9.41592
一家	-9.41682
杂志	-9.41687
保险	-9.41863
猪	-9.4193
品种	-9.41962
分为	-9.42009
创造	-9.42176
喷	-9.4227
中医	-9.42282
行动	-9.42371
补充	-9.42415
功	-9.42437
策划	-9.42446
类型	-9.4252
控	-9.42537
乌	-9.42778
郑	-9.42824
确定	-9.42827
泉	-9.42844
浙江	-9.42846
欧	-9.4285
装饰	-9.42879
欲	-9.42889
多次	-9.43037
折	-9.43186
照片	-9.4319
皇	-9.43301
职	-9.43316
四川	-9.43366
钟	-9.43393
年度	-9.43415
平均	-9.4351
混	-9.43513
作家	-9.43563
f	-9.43587
伦	-9.43635
相对	-9.43657
陆	-9.43678
计算	-9.43751
凉	-9.43761
1000	-9.43833
安排	-9.44079
组合	-9.44114
传播	-9.44145
2001	-9.44183
露	-9.44228
令人	-9.4435
快乐	-9.44397
一条	-9.44515
自我	-9.44517
少年	-9.44607
大部分	-9.44701
会员	-9.44716
勒	-9.4477
责任	-9.44807
里面	-9.44873
欢迎	-9.44981
多种	-9.44998
多少	-9.45057
试验	-9.45063
称为	-9.4509
艺	-9.45122
医	-9.4515
最佳	-9.45166
道路	-9.45196
最新	-9.45203
蛋	-9.45239
一定要	-9.45246
墨	-9.45402
仍	-9.45536
最好	-9.45563
司	-9.45646
幸福	-9.45752
实用	-9.4577
先进	-9.45771
品质	-9.4595
优质	-9.45976
洪	-9.46
认识	-9.46002
公园	-9.46002
册	-9.46009
帮	-9.46149
右	-9.46163
挂	-9.46163
俄罗斯	-9.46277
造	-9.46362
居民	-9.46429
嘉	-9.4652
薄	-9.46577
公路	-9.46649
湾	-9.46769
发表	-9.46886
网上	-9.4697
每年	-9.47029
也会	-9.47077
胶	-9.47112
艾	-9.47152
挺	-9.47234
拍摄	-9.47257
中华	-9.47323
炒	-9.47326
最大	-9.47352
就业	-9.47416
天津	-9.47418
办公室	-9.47448
l	-9.47448
导	-9.47505
距	-9.47533
高考	-9.47552
牙	-9.47588
来看	-9.47656
公开	-9.47667
发行	-9.47684
怕	-9.47755
女子	-9.47782
文字	-9.47829
改善	-9.47853
了一个	-9.47957
刻	-9.47995
急	-9.48006
更是	-9.48085
弱	-9.48127
推进	-9.48178
接触	-9.48195
广大	-9.48224
聚	-9.48249
机关	-9.48403
高校	-9.48423
遇到	-9.48559
考虑	-9.48601
炎	-9.48603
Q	-9.48637
惠	-9.48747
人士	-9.4878
形象	-9.48804
泽	-9.48858
临床	-9.48925
里的	-9.48988
看看	-9.49043
科研	-9.49171
45	-9.49277
重庆	-9.4929
白色	-9.49304
样	-9.49327
认真	-9.49361
句	-9.49483
昌	-9.49515
就可以	-9.49518
导演	-9.4957
终	-9.49581
哥	-9.49582
一名	-9.49595
机制	-9.49597
家长	-9.49772
连接	-9.49829
广场	-9.50028
营养	-9.50047
几乎	-9.50061
久	-9.50114
金属	-9.50156
必	-9.50237
重大	-9.50275
仪	-9.50346
09	-9.50419
击	-9.50564
突破	-9.50639
录	-9.50705
测	-9.5078
额	-9.50815
土地	-9.50826
注册	-9.50886
监督	-9.50895
征	-9.50925
装修	-9.5097
▁为什么	-9.50977
附近	-9.51003
祖	-9.51051
有一个	-9.5112
怀	-9.51133
萨	-9.51158
刷	-9.51168
服装	-9.51198
Z	-9.51219
突出	-9.51253
休闲	-9.51297
豆	-9.51369
睡	-9.51431
迅速	-9.51532
给我	-9.51537
挑战	-9.51732
男子	-9.51775
32	-9.51849
结婚	-9.51885
配合	-9.51913
革命	-9.51914
曼	-9.51925
我们的	-9.51937
念	-9.51995
的重要	-9.52068
苹果	-9.5211
尖	-9.52116
程度	-9.52159
秦	-9.52277
降低	-9.52371
淡	-9.5241
肥	-9.52476
博士	-9.52484
湖南	-9.52511
干部	-9.52537
统计	-9.52588
推出	-9.52652
床	-9.52691
恶	-9.52726
表演	-9.52731
众多	-9.52732
镜	-9.52754
2018	-9.52764
报道	-9.52769
泡	-9.52775
表达	-9.52803
些	-9.52844
看了	-9.52875
减	-9.52964
’	-9.52996
合理	-9.53
u	-9.53007
温度	-9.53012
怎样	-9.53181
凤	-9.53183
多个	-9.53296
救	-9.53322
凡	-9.53486
集中	-9.53541
每次	-9.53582
当地	-9.53726
池	-9.53733
现象	-9.53787
不少	-9.5388
05	-9.54059
出版社	-9.54166
深入	-9.54209
下来	-9.54225
闻	-9.54237
e	-9.54251
机会	-9.54314
三年	-9.54321
符合	-9.54343
父亲	-9.54401
漫画	-9.54403
汇	-9.54507
广西	-9.54513
冬	-9.54613
小区	-9.54619
物理	-9.54622
铜	-9.54645
珠	-9.54686
莱	-9.54745
纹	-9.54817
庆	-9.5491
的时间	-9.54915
微博	-9.54937
成熟	-9.55
概念	-9.55
自身	-9.55107
困难	-9.5513
下面	-9.55165
灰	-9.55167
杜	-9.55175
3、	-9.55206
逐渐	-9.55209
处于	-9.55229
明星	-9.5535
汉族	-9.55424
美食	-9.55458
护	-9.5546
涉及	-9.55487
耐	-9.55572
他们的	-9.55629
晚上	-9.55744
紧	-9.55756
[	-9.55809
坑	-9.55817
这次	-9.55867
配套	-9.55947
动作	-9.56
财	-9.56102
广泛	-9.56155
▁如何评价	-9.5617
搭配	-9.56181
女孩	-9.56203
配置	-9.56216
警	-9.56244
的一种	-9.56271
冠军	-9.56275
发表于起点网	-9.56298
成果	-9.56324
宇	-9.56324
维修	-9.56346
壁	-9.56365
不到	-9.56411
症	-9.56515
07	-9.56563
颜色	-9.56669
因素	-9.56674
良好的	-9.56716
手术	-9.5677
一段	-9.56788
迷	-9.56793
如果你	-9.56822
凯	-9.56825
红色	-9.56878
隆	-9.56903
有没有	-9.5697
煮	-9.57006
她们	-9.57128
麦	-9.5717
姆	-9.57195
郭	-9.57286
来源	-9.57298
避免	-9.57502
动画	-9.5752
认证	-9.57541
箱	-9.57602
引起	-9.57615
就能	-9.57628
印度	-9.57788
网友	-9.57841
负	-9.5792
哪些	-9.57939
大小	-9.58083
严	-9.581
举行	-9.5811
美元	-9.58138
大学生	-9.58149
双方	-9.58186
虚	-9.58206
寻找	-9.58229
诸	-9.58233
抓	-9.58267
离开	-9.58279
置	-9.58317
江苏	-9.58408
恢复	-9.58422
之间的	-9.58477
物流	-9.58517
晋	-9.58554
运输	-9.58559
黑色	-9.58571
背景	-9.58582
智慧	-9.58626
借	-9.58629
演出	-9.5865
答	-9.58656
成了	-9.58699
下载	-9.58721
▁我	-9.58722
包装	-9.58752
发挥	-9.58763
意识	-9.5879
制定	-9.58832
我就	-9.58836
滑	-9.58883
相当	-9.58887
收藏	-9.5891
Android	-9.5892
版本	-9.58939
腿	-9.58951
鞋	-9.58965
评	-9.58967
感受	-9.59001
06	-9.5901
习惯	-9.5907
黄金	-9.59102
03	-9.59191
其它	-9.59199
英雄	-9.59281
象	-9.59321
怪	-9.59436
容	-9.59445
飞机	-9.59454
势	-9.59491
轴	-9.59727
放在	-9.59728
冠	-9.59782
04	-9.59827
主动	-9.59853
东北	-9.59872
例如	-9.59895
的影响	-9.59907
36	-9.59914
费用	-9.5997
戴	-9.5998
首次	-9.60033
办理	-9.60055
攻击	-9.60157
之中	-9.60159
核心	-9.60183
第四	-9.602
锅	-9.60241
1999	-9.60254
玻璃	-9.60272
08	-9.60313
公共	-9.60339
探索	-9.60341
参	-9.60441
完善	-9.60491
至少	-9.60507
忠	-9.60586
观众	-9.60666
扬	-9.60671
伟	-9.60698
数量	-9.60753
哲学	-9.60784
一天	-9.60791
继	-9.60799
军事	-9.60807
个月	-9.60824
措施	-9.6092
永远	-9.61081
▁你	-9.61091
的感觉	-9.61127
同样	-9.61137
两人	-9.61205
罪	-9.61383
份	-9.61463
案例	-9.61509
沟	-9.61612
国内外	-9.6163
确实	-9.61668
物质	-9.61708
真实	-9.61782
尤其是	-9.61842
宜	-9.6187
感情	-9.61885
w	-9.61942
事情	-9.61998
结束	-9.62002
还要	-9.62048
至今	-9.62075
屋	-9.62117
皆	-9.62142
思考	-9.62183
超级	-9.62272
邀请	-9.62319
特别是	-9.62359
消息	-9.62377
河南	-9.62444
48	-9.62456
值得	-9.62497
采	-9.62549
出了	-9.62601
创意	-9.62607
读书	-9.627
动力	-9.62771
5.	-9.62784
似乎	-9.6281
开放	-9.62922
姜	-9.62925
柱	-9.62926
绝对	-9.62933
潮	-9.63011
练习	-9.63032
母亲	-9.63135
”“	-9.63141
al	-9.63241
会计	-9.63359
刺	-9.63371
须	-9.63406
肯定	-9.63416
承	-9.63452
图书	-9.63485
400	-9.63589
翻译	-9.63599
它的	-9.63624
男生	-9.63626
z	-9.63699
对象	-9.63721
不用	-9.63769
身上	-9.63875
打开	-9.63888
在这里	-9.639
狂	-9.63983
亚洲	-9.64015
举办	-9.64089
的方式	-9.64133
腰	-9.64139
航	-9.64179
特殊	-9.64233
角色	-9.64289
变成	-9.64327
泥	-9.6437
在线	-9.64372
一张	-9.64403
云南	-9.64425
墙	-9.64454
‘	-9.64558
射	-9.64589
致力于	-9.6461
协调	-9.6479
秒	-9.64896
装备	-9.64937
元素	-9.64951
抢	-9.64957
o	-9.64967
写作	-9.65031
麻	-9.6509
实力	-9.65102
确保	-9.65132
菌	-9.65143
信号	-9.65145
如今	-9.65145
增强	-9.65182
搞	-9.65229
回家	-9.65254
的朋友	-9.65255
壳	-9.65289
地球	-9.65441
证明	-9.65501
观察	-9.65504
身边	-9.65598
残	-9.65633
一只	-9.65638
魂	-9.65685
设有	-9.6571
01	-9.6574
升级	-9.65759
论坛	-9.65798
曰	-9.65883
注重	-9.65893
大众	-9.65998
阳光	-9.66105
定位	-9.66135
现实	-9.66285
现有	-9.66387
枝	-9.66391
年轻	-9.66402
r	-9.66486
即使	-9.66515
特征	-9.66532
互动	-9.66547
我想	-9.66584
高速	-9.66631
适应	-9.66716
联盟	-9.66803
苗	-9.66818
不得	-9.66843
脉	-9.67085
意义	-9.67173
东方	-9.67194
柳	-9.67265
1.5	-9.6727
看着	-9.67309
有个	-9.67329
持	-9.67338
爆	-9.67347
文艺	-9.67479
策略	-9.6754
证券	-9.67575
平时	-9.67607
:1	-9.67619
希	-9.67625
充满	-9.67646
慢	-9.67743
透	-9.67826
机场	-9.6786
带着	-9.67907
消	-9.67978
v	-9.68034
更多的	-9.6806
探	-9.6812
纪	-9.68124
穿越	-9.68189
不足	-9.68218
嘴	-9.68362
贤	-9.68389
研究生	-9.68404
投入	-9.68411
沟通	-9.68425
成立于	-9.685
直到	-9.6852
益	-9.68541
古代	-9.68564
成都	-9.6857
来到	-9.68586
碎	-9.68705
农民	-9.68743
死亡	-9.68771
意大利	-9.68826
in	-9.68886
--	-9.68949
优化	-9.69006
劳动	-9.69011
贸易	-9.69053
创建	-9.69136
琴	-9.69203
资	-9.69209
我也	-9.6921
犯	-9.69224
指标	-9.69239
炮	-9.69271
多年	-9.69337
斑	-9.69389
食物	-9.69404
是因为	-9.69409
演	-9.69458
球队	-9.69472
日成立	-9.69476
在中国	-9.69516
公主	-9.69617
湿	-9.6966
巨	-9.69674
充分	-9.69674
原来	-9.69743
兽	-9.69756
意见	-9.69759
合同	-9.69766
的方法	-9.69775
著	-9.69806
腹	-9.69839
家里	-9.6991
手段	-9.69957
相比	-9.69996
显	-9.7
太多	-9.70057
羽	-9.70119
大师	-9.70136
针	-9.70151
私	-9.70226
成就	-9.70385
的作用	-9.70414
出口	-9.70467
的工作	-9.70509
似	-9.70601
顿	-9.70609
驻	-9.70613
38	-9.70616
生长	-9.70696
心里	-9.70733
主义	-9.70763
完美	-9.70793
主要是	-9.7087
财务	-9.70904
以为	-9.70948
不了	-9.70963
专业的	-9.70982
采取	-9.70996
敌	-9.71083
是一名	-9.71151
支付	-9.71221
电力	-9.71227
中间	-9.71272
性格	-9.71319
1998	-9.71347
杭州	-9.71473
愿	-9.71517
此次	-9.7152
资产	-9.71537
民间	-9.71626
本身	-9.71691
矿	-9.71738
郎	-9.71756
并没有	-9.71824
贷款	-9.71841
简	-9.71869
不想	-9.71966
兄弟	-9.72013
吸	-9.72017
瓶	-9.72042
十二	-9.72056
隔	-9.72107
or	-9.72194
浮	-9.72208
不再	-9.7231
贡献	-9.72387
齿	-9.72557
楚	-9.7258
父	-9.72596
去年	-9.72686
裂	-9.72817
的同时	-9.72848
丰富的	-9.72859
制品	-9.72861
甜	-9.72865
庭	-9.72959
编写	-9.72959
本科	-9.72994
实行	-9.73028
大概	-9.73156
各位	-9.73187
历	-9.73241
给你	-9.7326
就像	-9.7342
险	-9.73428
人体	-9.73467
暖	-9.73509
杂	-9.73541
弄	-9.73547
j	-9.7356
坡	-9.73581
老人	-9.73585
主任	-9.73646
旅行	-9.73658
积	-9.73682
通信	-9.73692
博物馆	-9.73763
做了	-9.73775
记忆	-9.73847
附	-9.73867
儿子	-9.7389
四个	-9.74108
研究所	-9.74109
准	-9.74161
le	-9.74166
依然	-9.74195
一生	-9.74223
赤	-9.7434
沉	-9.74345
所有的	-9.74349
屏	-9.74351
周边	-9.7437
共有	-9.74402
当年	-9.7447
赴	-9.74538
西方	-9.74563
总结	-9.74565
很难	-9.7457
感到	-9.74664
围	-9.74854
汁	-9.7491
色彩	-9.7491
餐厅	-9.74912
600	-9.7494
好像	-9.75056
明确	-9.75063
键	-9.75095
神经	-9.75137
童	-9.75172
年龄	-9.75293
有了	-9.75352
的事	-9.75421
哭	-9.75455
使得	-9.75505
一份	-9.75539
造型	-9.75596
1997	-9.75642
尊	-9.75722
基于	-9.75747
扎	-9.7576
乳	-9.75822
坏	-9.75837
境	-9.75852
家具	-9.7595
做到	-9.76004
无论	-9.76007
资讯	-9.7602
青春	-9.76078
遇	-9.76097
例	-9.76099
免	-9.7614
女儿	-9.76157
覆盖	-9.76167
会有	-9.76167
乘	-9.76199
模	-9.76218
事故	-9.76228
寿	-9.7623
并不是	-9.76286
乃	-9.7636
分类	-9.76361
吸收	-9.76363
越来越	-9.76379
发表于晋江文学网	-9.76381
类似	-9.76384
各个	-9.7639
臣	-9.76424
鼓	-9.76481
很多人	-9.76482
灭	-9.76511
岭	-9.76557
务	-9.76593
铺	-9.76654
虽	-9.76687
意外	-9.76809
整理	-9.76852
不知	-9.76854
卢	-9.76857
洗净	-9.76909
赞	-9.76913
锦	-9.76937
梦想	-9.76939
眼睛	-9.7694
足球	-9.77
适用于	-9.77042
备	-9.77151
模型	-9.77197
投资者	-9.77253
旗	-9.77346
稍	-9.77373
6.	-9.77457
电子商务	-9.77593
性的	-9.77627
33	-9.77718
股票	-9.77798
豪	-9.77804
改造	-9.77809
▁如何看待	-9.77816
老板	-9.77821
购物	-9.77863
洋	-9.77954
修改	-9.77986
娜	-9.7799
测量	-9.78034
书中	-9.78086
构成	-9.78094
燕	-9.78118
案件	-9.7812
国外	-9.78137
某些	-9.78165
复杂	-9.78171
武汉	-9.78187
祥	-9.78218
都能	-9.78301
吹	-9.78361
com	-9.78534
健	-9.78559
!”	-9.7859
一款	-9.78609
具备	-9.78678
分布	-9.78717
顾	-9.78751
书法	-9.78777
预	-9.78786
实验室	-9.78807
回来	-9.78892
朗	-9.78904
公斤	-9.78924
on	-9.79011
平衡	-9.79024
上面	-9.79076
大赛	-9.79119
药物	-9.79123
磨	-9.79125
中文	-9.79152
电视剧	-9.79166
还能	-9.7921
毕竟	-9.79274
岁的	-9.79303
安徽	-9.79336
河北	-9.79366
劳	-9.7937
下降	-9.7941
状况	-9.79412
的主要	-9.79417
歌曲	-9.79457
海洋	-9.79515
办公	-9.79556
息	-9.79575
拜	-9.79773
插	-9.79809
an	-9.7984
而言	-9.79913
懂	-9.8001
蒂	-9.80129
装置	-9.80146
陵	-9.80187
蔬菜	-9.80191
上市	-9.80242
月份	-9.80301
英文	-9.80422
做出	-9.80497
ing	-9.80516
的历史	-9.8057
伤害	-9.8057
1996	-9.80581
西安	-9.80689
展开	-9.80782
指出	-9.80786
炉	-9.8079
竞争	-9.80791
润	-9.8087
出来的	-9.80913
的研究	-9.80934
房地产	-9.80964
en	-9.80988
始终	-9.80995
真是	-9.81081
的大	-9.81085
省级	-9.8109
妖	-9.8114
报名	-9.81143
效	-9.81205
庙	-9.81206
恒	-9.81218
宣布	-9.81221
高度	-9.81256
登记	-9.81264
湖北	-9.81266
该村	-9.81268
都市	-9.8129
随后	-9.81308
启动	-9.81315
翼	-9.81341
攻	-9.81405
家人	-9.81534
依法	-9.81549
渠道	-9.81562
都在	-9.81572
整合	-9.81644
影片	-9.81697
狼	-9.81709
饰	-9.81714
资本	-9.81745
效率	-9.81763
支撑	-9.81775
扣	-9.81777
考生	-9.81838
害	-9.81856
评估	-9.81873
为何	-9.81926
亭	-9.81993
说话	-9.82001
描述	-9.8201
全市	-9.82024
劲	-9.82027
思维	-9.82057
辆	-9.82091
批准	-9.82131
预防	-9.82138
郡	-9.82153
恋	-9.82211
往往	-9.82232
150	-9.82239
的情况	-9.82358
瘦	-9.8236
强调	-9.82364
失败	-9.8237
部队	-9.82391
细节	-9.82432
航空	-9.82466
来了	-9.82488
99	-9.8251
市民	-9.82621
魏	-9.82653
的原因	-9.82677
反映	-9.82743
高端	-9.82775
刺激	-9.82783
曾任	-9.82809
刊	-9.82864
进口	-9.82912
感谢	-9.82983
纵	-9.83102
动态	-9.83128
800	-9.83147
译	-9.83191
加上	-9.83228
55	-9.83254
空气	-9.83257
角度	-9.83356
净	-9.83371
尘	-9.8338
街道	-9.83463
福建	-9.83489
人家	-9.83633
甘	-9.83649
赫	-9.83664
cm	-9.83735
诚	-9.83738
芳	-9.83768
37	-9.83771
近年来	-9.83808
助	-9.83814
夹	-9.83862
唯一	-9.83883
指数	-9.8391
变得	-9.83918
流行	-9.83927
地铁	-9.84038
塘	-9.84073
宏	-9.84108
振	-9.84144
美女	-9.84152
胃	-9.84204
健身	-9.8424
防止	-9.8426
范	-9.84452
判断	-9.84538
专辑	-9.84575
最好的	-9.84579
骂	-9.84656
规律	-9.84663
菲	-9.84668
委员	-9.84718
的基础上	-9.84763
跨	-9.84814
累	-9.84825
移	-9.84933
高效	-9.84947
还可以	-9.84999
依据	-9.85013
每一个	-9.85072
影视	-9.85085
旁	-9.85096
延	-9.85133
玛	-9.85167
和谐	-9.85216
驾驶	-9.85247
一部	-9.85335
能源	-9.85369
比例	-9.8538
居住	-9.85386
小说网	-9.85399
建成	-9.85406
码	-9.85428
暴	-9.85459
相互	-9.85493
的情况下	-9.855
舍	-9.85539
周围	-9.85603
空调	-9.85606
当前	-9.85665
颜	-9.85772
官方	-9.85792
之外	-9.85804
工作人员	-9.85846
预计	-9.85846
流程	-9.85864
俊	-9.8592
天然	-9.85926
疏	-9.85967
引导	-9.86137
闹	-9.86164
不够	-9.86178
主席	-9.86208
森林	-9.86237
顾问	-9.86273
婚	-9.86321
吨	-9.86557
人数	-9.86562
34	-9.86572
也许	-9.86633
包含	-9.86645
正确	-9.86651
限制	-9.86658
是中国	-9.86692
队伍	-9.86726
普遍	-9.86732
零售	-9.86824
独特的	-9.86832
败	-9.86832
那种	-9.86848
辉	-9.86912
萌	-9.86934
搜索	-9.86951
回到	-9.86996
新疆	-9.87018
他是	-9.87024
勤	-9.87058
熊	-9.87072
韵	-9.87089
吸引	-9.87102
愿意	-9.87166
付	-9.87176
曹	-9.87192
▁“	-9.87249
黄色	-9.87296
称号	-9.87304
个性	-9.87313
涨	-9.87318
道德	-9.87363
粉丝	-9.87376
分子	-9.87409
寻	-9.87414
一致	-9.8745
禁	-9.87457
伏	-9.87471
并在	-9.87532
精品	-9.87535
家族	-9.87545
稿	-9.87693
难以	-9.87736
缺	-9.87751
逃	-9.87825
资格	-9.87832
平台的应用	-9.8784
婚姻	-9.87851
固定	-9.87873
详细	-9.87898
画面	-9.87908
等地	-9.88036
初中	-9.88057
掌	-9.88124
太阳	-9.88137
才是	-9.88212
重视	-9.88258
广东省	-9.88282
专门	-9.88282
犯罪	-9.88322
诊断	-9.88394
两年	-9.88411
原则	-9.88418
1995	-9.88539
敢	-9.88592
协议	-9.88597
即将	-9.88633
有所	-9.88649
的新	-9.88676
锁	-9.88702
有很多	-9.88732
玄	-9.88758
收集	-9.88758
抱	-9.88797
生存	-9.88807
不太	-9.88809
模拟	-9.8883
时候	-9.88846
甚	-9.88879
莲	-9.88879
下去	-9.88898
谢谢	-9.88906
於	-9.8892
扩大	-9.88955
饮食	-9.88971
美丽	-9.88988
PS	-9.88999
岸	-9.89086
当代	-9.89116
所谓	-9.8916
济	-9.89212
地位	-9.89245
邦	-9.89283
宣	-9.89296
杆	-9.89313
村民	-9.89327
谱	-9.89343
都可以	-9.89366
摆	-9.89401
利益	-9.89436
袋	-9.89445
出去	-9.89466
主编	-9.89517
限	-9.89519
规则	-9.89556
武器	-9.89637
素质	-9.89645
财政	-9.8965
渡	-9.89663
课题	-9.89674
检验	-9.8969
化工	-9.89771
江西	-9.89975
破坏	-9.90026
工资	-9.90054
著作	-9.90093
侯	-9.90106
青少年	-9.90141
山东省	-9.90255
蛇	-9.90267
趋势	-9.90358
沈	-9.90368
用品	-9.90498
一套	-9.90527
一片	-9.90622
海外	-9.90671
大道	-9.90714
链	-9.90777
辣	-9.90783
两种	-9.90797
的设计	-9.90945
幼儿园	-9.90957
帅	-9.90961
隐	-9.91092
招聘	-9.91133
恨	-9.91215
从此	-9.9122
球员	-9.91255
°	-9.9126
=	-9.91315
给予	-9.91327
争	-9.91391
慢慢	-9.91445
学者	-9.91454
砖	-9.91504
原料	-9.91516
幅	-9.91531
身份	-9.91534
江苏省	-9.91542
的内容	-9.91554
姓	-9.91581
餐	-9.91591
00	-9.91597
止	-9.91611
西北	-9.91618
还在	-9.91635
十年	-9.91735
病毒	-9.91737
▁如何	-9.91761
发动机	-9.91789
拼	-9.91844
的产品	-9.91852
战斗	-9.91868
桂	-9.91883
仓	-9.91916
惊	-9.91921
石油	-9.91933
?”	-9.91961
酱	-9.91967
孝	-9.91996
同年	-9.92
教程	-9.92018
期待	-9.92138
域	-9.92166
情绪	-9.92224
今日	-9.92334
播	-9.92337
75	-9.9234
警察	-9.92342
涂	-9.92393
鼻	-9.92395
上了	-9.92414
女朋友	-9.92433
很大	-9.92463
肌	-9.92523
尝试	-9.92527
批	-9.92529
很好	-9.92552
放弃	-9.9263
他在	-9.9273
同志	-9.92739
陕西	-9.92769
不如	-9.92792
清楚	-9.92796
另一	-9.9286
调节	-9.92873
男朋友	-9.92905
哪个	-9.93026
鸡蛋	-9.93054
全省	-9.93089
幽	-9.93123
山西	-9.93139
感染	-9.93155
×	-9.93205
作业	-9.93265
葱	-9.933
严格	-9.93342
刚刚	-9.93372
硕士	-9.93373
39	-9.93392
棒	-9.93394
法院	-9.93405
敬	-9.93416
舒适	-9.93419
面前	-9.93423
地下	-9.93438
景观	-9.93448
勇	-9.93473
歌手	-9.93487
男性	-9.93601
百度	-9.93623
知名	-9.9364
检	-9.93641
出生	-9.93663
引进	-9.93675
殿	-9.93676
地址	-9.93709
一边	-9.93747
反对	-9.93802
抽	-9.93809
上下	-9.9383
月至	-9.9385
屏幕	-9.93906
生于	-9.93956
3000	-9.93968
审	-9.93989
划	-9.94052
等方面	-9.94068
泪	-9.94124
都不	-9.94142
2.5	-9.94168
北京市	-9.94186
互	-9.94187
召开	-9.94196
花园	-9.94235
混合	-9.9427
图书馆	-9.94358
群体	-9.94367
原理	-9.94397
顾客	-9.94419
宗教	-9.94422
融合	-9.94437
的世界	-9.94533
一本	-9.94536
无限	-9.94628
院校	-9.94655
方面的	-9.94781
也没有	-9.94804
呼	-9.94809
态	-9.94857
斜	-9.94883
煤	-9.94913
窗	-9.94919
小编	-9.94981
呀	-9.94994
辛	-9.95055
怎么办	-9.95138
西南	-9.95141
城区	-9.95146
鸣	-9.95205
接近	-9.9524
02	-9.95246
就要	-9.95253
另	-9.95298
俱乐部	-9.95324
监管	-9.95405
休	-9.95508
将会	-9.95527
提醒	-9.9563
棉	-9.95719
介绍了	-9.95739
帕	-9.95813
启	-9.95838
原创	-9.9585
1993	-9.95881
尽管	-9.95895
爸爸	-9.95902
设立	-9.95961
负责人	-9.95985
根本	-9.96
食用	-9.9612
4、	-9.96154
过来	-9.96156
摩	-9.96157
嘛	-9.9616
烂	-9.96161
旅	-9.96232
公布	-9.96248
宇宙	-9.96271
吃饭	-9.96298
凌	-9.9631
美容	-9.96391
浪	-9.96431
居然	-9.96577
少女	-9.96589
竟然	-9.96594
游客	-9.96626
固	-9.96651
解决方案	-9.96724
鉴定	-9.96744
天气	-9.96749
仍然	-9.96826
消防	-9.9689
肝	-9.97007
决策	-9.97084
水果	-9.97183
闲	-9.97232
擅长	-9.97302
岗	-9.97314
迁	-9.97321
爱好者	-9.97336
不含	-9.97438
应该是	-9.97438
布局	-9.97443
含量	-9.97446
财富	-9.97453
售	-9.97484
输出	-9.97486
看见	-9.97614
等级	-9.97619
公寓	-9.97785
防治	-9.97804
观点	-9.97821
偷	-9.97822
纪念	-9.97823
强化	-9.97849
荣获	-9.97904
国家级	-9.97936
120	-9.97939
真正的	-9.97963
幼	-9.98047
危险	-9.98085
敏	-9.98124
添加	-9.9813
近日	-9.98186
衣服	-9.9819
直播	-9.98228
辅助	-9.98263
焦	-9.98322
清晰	-9.98349
玉米	-9.98372
保存	-9.9842
得到了	-9.98429
育	-9.98434
申	-9.98447
小米	-9.98474
呈现	-9.98482
昨天	-9.98485
皇帝	-9.98543
污染	-9.986
那样	-9.9866
中华人民共和国	-9.98734
讯	-9.98755
中共	-9.98783
联赛	-9.98813
第一个	-9.98821
融	-9.98828
餐饮	-9.9891
民主	-9.98935
&	-9.98947
▁有哪些	-9.99011
洲	-9.99037
遍	-9.9908
el	-9.99096
天地	-9.99105
简称	-9.9915
强大的	-9.99152
西部	-9.99201
桑	-9.99219
1994	-9.99223
各地	-9.99313
文物	-9.9934
劳动力	-9.99344
1992	-9.99354
佩	-9.99356
在此	-9.99404
'	-9.99499
落实	-9.99506
豪华	-9.99532
车型	-9.9954
月出生	-9.9955
提前	-9.99551
室内	-9.99597
名称	-9.996
住宅	-9.9966
一级	-9.99681
早期	-9.99775
桃	-9.99829
签	-9.99867
奉	-9.99883
肠	-9.99907
纤维	-9.99914
示范	-9.99971
进步	-10.0005
他说	-10.0006
排名	-10.0006
炸	-10.0007
日常	-10.0009
传说	-10.0014
档	-10.0021
工厂	-10.0026
般	-10.0029
啥	-10.003
都要	-10.0033
陶	-10.0035
种子	-10.0044
胎	-10.0044
怒	-10.0053
霍	-10.0061
滚	-10.0066
良好	-10.0066
鹿	-10.0069
有时	-10.0073
中国人	-10.0078
另一个	-10.0096
拒绝	-10.0096
关心	-10.0099
浙江省	-10.0103
也能	-10.0104
走向	-10.0107
沿	-10.0113
后期	-10.0113
聊	-10.0118
58	-10.0121
不错	-10.0122
而已	-10.0123
挑	-10.0125
it	-10.0126
研	-10.0128
显著	-10.0131
预测	-10.0132
贾	-10.0144
碧	-10.0146
逻辑	-10.0147
眉	-10.0147
年毕业于	-10.0148
视觉	-10.015
线路	-10.0157
序	-10.0163
萧	-10.0173
目的	-10.0175
怎么样	-10.0178
较大	-10.018
_	-10.0184
不管	-10.019
协助	-10.0191
谋	-10.0198
声音	-10.0199
基层	-10.0201
重要的	-10.0206
设计师	-10.0216
46	-10.0217
精彩	-10.0222
浓	-10.0224
提示	-10.0225
维生素	-10.0229
胜利	-10.0231
舞蹈	-10.0237
发表于	-10.0243
相同	-10.0245
让他	-10.0267
一旦	-10.0271
批发	-10.0274
而不是	-10.028
大会	-10.0281
胆	-10.0284
倒入	-10.0287
党员	-10.0287
动漫	-10.0289
上涨	-10.0294
去了	-10.0295
五年	-10.0301
兹	-10.0308
是一家	-10.0311
审计	-10.0311
肿瘤	-10.0314
65	-10.0316
逆	-10.0327
▁1	-10.0328
听到	-10.0331
2%	-10.0336
体现	-10.0336
咖啡	-10.0336
前往	-10.0339
徒	-10.034
上述	-10.0347
专用	-10.0348
青岛	-10.035
关键	-10.0351
砂	-10.0352
大多数	-10.0355
的基本	-10.0356
循环	-10.0357
鸿	-10.0362
滴	-10.0365
都没有	-10.0372
绘画	-10.0373
的要求	-10.0375
形态	-10.0384
准确	-10.0389
情感	-10.039
也就是	-10.039
办法	-10.0391
恋爱	-10.0398
深度	-10.0399
之处	-10.04
习	-10.0406
遂	-10.0409
▁S	-10.0421
您的	-10.0421
态度	-10.0423
埃	-10.0424
浩	-10.0432
49	-10.0434
占总收入的	-10.0435
留学	-10.0442
第五	-10.0443
敌人	-10.0444
始	-10.0453
彻底	-10.0458
98	-10.0463
的能力	-10.0471
河南省	-10.0472
在于	-10.0477
42	-10.0478
堡	-10.0478
乔	-10.0479
龄	-10.0479
毕业于	-10.0479
乙	-10.0482
穷	-10.049
传奇	-10.0493
拟	-10.0508
江湖	-10.0511
行情	-10.0516
路线	-10.0521
5000	-10.0523
丑	-10.0525
把握	-10.0527
68	-10.0528
径	-10.0528
诗人	-10.0529
烤	-10.0529
月生	-10.0531
流量	-10.0533
御	-10.0538
瞬间	-10.0538
稳	-10.0542
柜	-10.0544
磁	-10.0548
艳	-10.0548
至于	-10.0548
拳	-10.055
回复	-10.0552
巧	-10.0552
症状	-10.0553
地质	-10.056
娘	-10.0563
*	-10.0563
面向	-10.0563
的回答	-10.0565
邪	-10.0566
遭	-10.0567
或许	-10.0574
地面	-10.0576
兴趣	-10.0579
经济学	-10.0581
奶	-10.0583
收益	-10.0588
就在	-10.0591
职工	-10.0596
团体	-10.0598
思路	-10.0602
矛盾	-10.0607
立即	-10.0607
全新	-10.0627
逐步	-10.0628
车站	-10.0628
材	-10.0632
法规	-10.0635
晶	-10.0635
物品	-10.064
吊	-10.0642
蛋白	-10.0653
沃	-10.0653
瓜	-10.0663
枚	-10.0664
IT	-10.0665
是我	-10.067
国务院	-10.0678
校长	-10.068
加拿大	-10.0684
较为	-10.0688
诚信	-10.0689
上海市	-10.069
之路	-10.0691
地震	-10.0695
鼓励	-10.0695
医药	-10.0696
地理	-10.0696
总统	-10.0698
市政府	-10.0702
不敢	-10.0703
震	-10.0704
墓	-10.0708
公交	-10.0709
一句	-10.0711
估计	-10.0717
对比	-10.0719
有时候	-10.0726
魔法	-10.0728
的孩子	-10.0728
阁	-10.0733
顺利	-10.0736
1990	-10.0738
的关系	-10.0738
文献	-10.0741
88	-10.0742
赛季	-10.075
囊	-10.0755
女士	-10.0756
拔	-10.0757
指挥	-10.0763
四川省	-10.0767
7.	-10.0768
难度	-10.0779
此时	-10.078
岗位	-10.0782
维持	-10.0783
1%	-10.079
蔡	-10.0798
各大	-10.0803
集体	-10.0806
肩	-10.0806
逼	-10.0806
95	-10.0807
编制	-10.0813
作为一个	-10.0817
脂	-10.0826
之类的	-10.0832
鸭	-10.0833
栋	-10.0834
宿	-10.0852
专利	-10.0852
缺乏	-10.0855
律师	-10.0857
吐	-10.0862
系统的	-10.0871
妙	-10.0877
海拔	-10.088
原本	-10.0881
忙	-10.0885
尊重	-10.0887
可爱	-10.0887
酷	-10.0889
输	-10.0891
地图	-10.0892
监测	-10.0894
优惠	-10.0895
军队	-10.0912
好好	-10.0915
缩	-10.0917
养殖	-10.0917
妹	-10.0921
多了	-10.0927
完整	-10.0927
理想	-10.093
仪器	-10.0941
株	-10.0942
识别	-10.0945
蒸	-10.0946
ar	-10.0952
洁	-10.0953
撞	-10.0962
遗	-10.097
俗	-10.0973
证书	-10.0976
籍	-10.0979
司法	-10.098
有机	-10.0982
两次	-10.0983
获取	-10.0993
应当	-10.0996
本地	-10.1002
锻炼	-10.1003
鼎	-10.1004
岳	-10.1004
心理学	-10.1006
则是	-10.1009
丛书	-10.101
腾	-10.1011
一线	-10.1018
地点	-10.102
到达	-10.1023
主体	-10.1029
垃圾	-10.103
茎	-10.1032
边缘	-10.1035
页	-10.104
晨	-10.104
也很	-10.1051
常用	-10.1059
警方	-10.1061
选手	-10.1065
47	-10.1067
认	-10.107
站在	-10.1073
民警	-10.1074
凭借	-10.1077
开心	-10.1077
担心	-10.1088
不喜欢	-10.1089
凭	-10.1089
租	-10.1092
响	-10.1098
形成了	-10.1098
盒	-10.1101
幼儿	-10.1102
工程师	-10.111
觉	-10.1111
3%	-10.1111
年间	-10.1113
43	-10.1113
浆	-10.1115
他人	-10.1117
也就	-10.1118
专题	-10.1119
现在的	-10.112
语文	-10.1121
霜	-10.1121
查询	-10.1124
和平	-10.1127
出发	-10.1132
基部	-10.1134
房屋	-10.1135
西班牙	-10.1143
上升	-10.1145
re	-10.1147
监	-10.1151
记得	-10.1152
环节	-10.1154
先进的	-10.1157
想到	-10.1158
对手	-10.1159
弯	-10.1161
飞行	-10.1162
wifi	-10.1166
主角	-10.1167
合成	-10.1169
显得	-10.1179
下的	-10.1181
你可以	-10.1183
加盟	-10.1183
塑料	-10.1184
学员	-10.1187
各项	-10.119
三大	-10.1196
印刷	-10.1197
代码	-10.12
失去	-10.1201
让我们	-10.1203
鼠	-10.1204
汗	-10.1208
et	-10.1212
饼	-10.1212
商家	-10.1213
这款	-10.1218
客观	-10.122
做的	-10.1221
64	-10.1225
讲述	-10.1227
荒	-10.1235
运动员	-10.1236
6%	-10.1238
消除	-10.1244
每一	-10.1244
可能会	-10.1248
场所	-10.1258
更好的	-10.1261
一块	-10.1262
频	-10.1264
分布于	-10.1265
什么样的	-10.1267
肺	-10.1267
房子	-10.1268
典	-10.1271
的学生	-10.1272
男女	-10.1273
移民	-10.1276
吕	-10.1279
牧	-10.1279
策	-10.128
染	-10.128
这就是	-10.128
虾	-10.1283
本次	-10.1285
授	-10.1287
”(	-10.1291
名字	-10.1296
同步	-10.1298
苏州	-10.1301
输入	-10.1304
技术服务	-10.1306
护理	-10.1307
感动	-10.1313
月参加工作	-10.1315
辞	-10.1317
确认	-10.1325
误	-10.1325
44	-10.133
告	-10.1339
壮	-10.1341
清洁	-10.1341
监控	-10.1349
发射	-10.135
奖励	-10.1353
分手	-10.1354
明白	-10.136
也没	-10.1363
天天	-10.1366
减肥	-10.1368
公司的	-10.1369
侠	-10.1369
尽量	-10.1376
神秘	-10.1376
榜	-10.1376
0.5	-10.1378
购	-10.1381
电池	-10.1382
无论是	-10.1386
告诉	-10.1397
大家都	-10.1397
欣赏	-10.1399
阵	-10.14
妈	-10.1405
房间	-10.1406
废	-10.1406
实习	-10.1408
人文	-10.1409
朝鲜	-10.141
迎	-10.1411
坛	-10.1425
老公	-10.144
肾	-10.1442
辅导	-10.1442
偶	-10.1451
柏	-10.1451
简单的	-10.1451
尿	-10.1452
85	-10.1454
の	-10.1465
聊天	-10.147
很少	-10.1476
珍	-10.1487
通知	-10.1489
100%	-10.149
寄	-10.1492
56	-10.1494
赶	-10.1494
跌	-10.1495
藤	-10.1496
1988	-10.1497
相似	-10.1499
粮	-10.1499
不需要	-10.15
尺寸	-10.15
议	-10.1503
发出	-10.1505
拓展	-10.1507
这位	-10.1517
丘	-10.1518
治理	-10.152
观念	-10.1521
佐	-10.1521
请问	-10.1526
好了	-10.1528
闭	-10.1529
津	-10.153
正是	-10.153
孟	-10.1531
同意	-10.1533
场景	-10.1534
或是	-10.1535
一等奖	-10.154
湘	-10.154
一座	-10.1543
漏	-10.1544
互相	-10.1545
GB	-10.1554
全村	-10.1556
赏	-10.1556
最低	-10.156
近期	-10.1561
无数	-10.1563
醒	-10.1565
新加坡	-10.1566
探讨	-10.1567
还会	-10.1567
难道	-10.1574
醉	-10.1576
新型	-10.1579
昨日	-10.1582
嫩	-10.1584
档案	-10.1585
是一部	-10.1585
对外	-10.1586
本来	-10.1586
什	-10.1593
孤	-10.1594
恐怖	-10.16
我要	-10.1606
也要	-10.1608
机器	-10.1612
入选	-10.1615
全县	-10.1618
频道	-10.1618
内心	-10.1621
障碍	-10.1625
授予	-10.1629
风景	-10.1633
发展的	-10.164
记载	-10.1647
领域的	-10.1648
的行为	-10.1652
是以	-10.1652
通道	-10.1654
什么的	-10.1656
爬	-10.1656
冯	-10.1658
强度	-10.1665
呼吸	-10.1665
如下	-10.1672
撒	-10.1675
收录	-10.1677
更好	-10.1678
足球俱乐部	-10.1681
漆	-10.1687
1991	-10.1689
赢	-10.1689
弗	-10.169
-1	-10.169
在这个	-10.1692
融资	-10.1693
境内	-10.1694
能量	-10.1696
4%	-10.17
后的	-10.17
8%	-10.1702
飘	-10.1705
韦	-10.1705
哥哥	-10.1706
差不多	-10.1712
的专业	-10.172
欢	-10.1722
宅	-10.1723
痛苦	-10.1723
损失	-10.1725
爽	-10.1725
擦	-10.1727
南部	-10.1728
协	-10.1731
舒	-10.1733
▁北京	-10.1735
胖	-10.1736
肌肉	-10.1737
铝	-10.174
漂亮	-10.1744
干净	-10.1745
续	-10.1747
筒	-10.1747
蓝色	-10.1751
适量	-10.1751
可能是	-10.1753
的特点	-10.1758
渣	-10.1762
当中	-10.1768
权威	-10.1772
1985	-10.1773
斯特	-10.1785
浦	-10.1786
教育部	-10.1791
贵州	-10.1792
看起来	-10.1792
5%	-10.1792
冒险	-10.1795
预期	-10.1799
地处	-10.18
辐射	-10.1801
产量	-10.1804
围绕	-10.1806
均匀	-10.1807
保健	-10.1809
粮食	-10.1811
旋	-10.1813
构建	-10.1814
鹏	-10.1817
留下	-10.1818
万人	-10.182
兔	-10.182
同时也	-10.1821
获得了	-10.1822
董	-10.1824
常见	-10.1824
嫁	-10.1835
既然	-10.1838
授权	-10.1845
加快	-10.1847
看过	-10.1849
赛事	-10.1851
穗	-10.1853
师范大学	-10.1854
涛	-10.1857
阀	-10.1857
氧化	-10.1864
在北京	-10.187
不久	-10.1874
题目	-10.1874
取得了	-10.1874
舌	-10.1875
出版的图书	-10.1876
基因	-10.1876
南方	-10.1878
肌肤	-10.1879
之下	-10.1879
机器人	-10.188
同事	-10.188
小孩	-10.1883
每日	-10.1884
碑	-10.1886
摇	-10.1891
设定	-10.1891
理财	-10.1901
下午	-10.1902
识	-10.1904
危机	-10.1908
外观	-10.1909
炼	-10.1909
苍	-10.191
老婆	-10.191
访	-10.1911
泵	-10.1914
四年	-10.1915
打算	-10.1918
操	-10.1921
头发	-10.1922
产品的	-10.1924
著名的	-10.1935
爆炸	-10.1937
部位	-10.1942
等待	-10.1942
供应	-10.1942
▁B	-10.1952
用来	-10.1959
景区	-10.196
通讯	-10.1962
倾	-10.1962
彭	-10.1963
又称	-10.1967
否则	-10.1971
%;	-10.1972
剧情	-10.1974
山区	-10.1976
乎	-10.1977
旺	-10.1986
多家	-10.1986
斤	-10.1988
7%	-10.1991
黑暗	-10.1995
建筑面积	-10.1996
学历	-10.1998
分离	-10.1999
作战	-10.1999
钻	-10.2001
人民币	-10.2002
在美国	-10.2004
人群	-10.2007
魅力	-10.2007
莉	-10.2013
来的	-10.2014
优秀的	-10.2016
唇	-10.2021
茂	-10.2023
建立了	-10.2028
我在	-10.2034
超市	-10.2037
成分	-10.2038
的作品	-10.2041
开启	-10.2045
妻子	-10.2048
美丽的	-10.205
刑	-10.2053
搜	-10.2057
人间	-10.2059
四大	-10.2059
大约	-10.2067
界面	-10.207
哪里	-10.2077
一颗	-10.2077
这是一个	-10.208
教练	-10.2081
ed	-10.2085
相关的	-10.2086
打击	-10.209
书籍	-10.2092
妇女	-10.2092
工人	-10.2093
而不	-10.2095
讲解	-10.2095
澳大利亚	-10.2099
盆	-10.2103
妹子	-10.2105
猛	-10.2106
考研	-10.2108
分配	-10.2111
ad	-10.2117
利润	-10.2118
将军	-10.2118
展览	-10.2119
人工	-10.2119
号线	-10.2121
66	-10.2126
究竟	-10.2131
还没	-10.2132
就算	-10.2135
拖	-10.2137
堆	-10.2138
后面	-10.2139
前后	-10.2144
78	-10.2146
养生	-10.2147
研究院	-10.2147
is	-10.2154
脂肪	-10.2157
独特	-10.2158
电源	-10.2162
寨	-10.2165
律	-10.2167
并非	-10.2172
销	-10.2172
电视台	-10.2173
技	-10.2173
填	-10.2176
氧	-10.2181
舞台	-10.2182
QQ	-10.2183
加速	-10.2184
当天	-10.2185
经理	-10.2187
宾	-10.2188
苑	-10.219
民国	-10.2194
悦	-10.2199
会不会	-10.2199
姐姐	-10.22
席	-10.2202
昭	-10.2205
考核	-10.2208
引发	-10.2214
锡	-10.2217
坝	-10.2225
的机会	-10.2227
外国	-10.2228
词汇	-10.2232
的角度	-10.2237
饮	-10.224
审批	-10.2243
穆	-10.2247
粘	-10.2248
1989	-10.2249
病人	-10.2255
说的	-10.2261
耶	-10.2266
热情	-10.2267
实在	-10.2267
基本上	-10.2267
己	-10.2269
有多	-10.2269
心中	-10.2269
▁2	-10.227
万平方米	-10.2271
研制	-10.2283
危	-10.2292
自主	-10.2293
公告	-10.2296
禁止	-10.2299
王子	-10.23
命运	-10.23
自动化	-10.2301
▁(	-10.2308
依旧	-10.231
总面积	-10.2315
北方	-10.2319
传承	-10.2319
吾	-10.232
串	-10.2321
更为	-10.2322
展现	-10.2324
看来	-10.2325
常常	-10.2326
妻	-10.2328
成为了	-10.2329
绕	-10.233
历任	-10.233
拆	-10.2331
轩	-10.2332
收到	-10.2332
行业的	-10.2333
味道	-10.2333
访问	-10.2334
特性	-10.2339
一路	-10.2347
就有	-10.2349
周期	-10.235
1987	-10.2351
紧张	-10.2354
月任	-10.2354
停止	-10.2357
写的	-10.2365
天使	-10.2366
没想到	-10.237
戈	-10.2372
us	-10.2375
一件	-10.2376
辰	-10.2377
丸	-10.2377
考察	-10.2377
潘	-10.2378
ch	-10.2379
错误	-10.2381
业绩	-10.2383
释	-10.2384
异常	-10.2387
的游戏	-10.2387
链接	-10.2387
标志	-10.2388
郑州	-10.2389
戒	-10.2393
热爱	-10.2412
修复	-10.2413
淘宝	-10.2413
1986	-10.2413
话题	-10.2413
多数	-10.2414
积累	-10.2416
作出	-10.2419
司机	-10.2419
北部	-10.2421
而成	-10.2424
汪	-10.2424
透明	-10.2425
股份	-10.2426
从小	-10.2429
旗下	-10.2434
自信	-10.2438
袁	-10.244
事实	-10.2442
寸	-10.2443
尤其	-10.2446
宿舍	-10.2447
96	-10.245
外科	-10.2451
想象	-10.2453
骑	-10.2456
男友	-10.2462
尤	-10.2462
更有	-10.2463
审核	-10.2465
钙	-10.2466
崇	-10.2469
单元	-10.2472
的需求	-10.2474
已有	-10.2474
厦门	-10.2477
便宜	-10.2479
贺	-10.2479
副主任	-10.248
卧	-10.2481
解放	-10.2484
加热	-10.249
采购	-10.2492
穴	-10.2494
获奖	-10.2501
信用	-10.2502
在这	-10.2504
收购	-10.2509
不懂	-10.251
67	-10.2513
52	-10.2513
佛教	-10.2516
全书	-10.2517
服饰	-10.2517
带领	-10.2519
故障	-10.252
干燥	-10.2522
三星	-10.2527
公众	-10.2527
你要	-10.2527
雾	-10.2529
气候	-10.2532
化妆品	-10.2538
定制	-10.2538
切成	-10.254
沈阳	-10.2541
最多容纳	-10.2543
献	-10.2544
加大	-10.2547
办学	-10.255
反而	-10.2558
土壤	-10.2571
实例	-10.2572
买了	-10.2574
纷纷	-10.2575
厨房	-10.2576
霞	-10.2577
播放	-10.2583
76	-10.2589
竟	-10.2598
能否	-10.2604
共享	-10.2609
新鲜	-10.2611
晒	-10.2613
伴	-10.2614
at	-10.2619
技术咨询	-10.2619
不可能	-10.2624
咸	-10.2628
一支	-10.2629
挖	-10.263
000	-10.2634
拨	-10.2635
女神	-10.2637
原油	-10.2637
企	-10.2642
姑娘	-10.2644
精英	-10.2644
师生	-10.2649
现为	-10.2655
戏剧	-10.2656
爆发	-10.2658
数据库	-10.2658
一代	-10.266
迈	-10.2662
的形式	-10.2664
面试	-10.2665
复习	-10.2671
职务	-10.2673
湖南省	-10.2676
湖北省	-10.2679
福建省	-10.2682
传媒	-10.2687
高速公路	-10.269
科技有限公司于	-10.2706
生活的	-10.2706
▁-	-10.2707
过了	-10.271
多年来	-10.2711
57	-10.2711
▁1.	-10.2712
86	-10.2712
广播	-10.2712
出现了	-10.2716
节能	-10.2716
收获	-10.2718
梨	-10.272
没什么	-10.2723
心情	-10.2724
了很多	-10.2725
曾在	-10.2731
前面	-10.2735
犬	-10.2737
熟悉	-10.2737
灾	-10.2737
消失	-10.2741
货币	-10.2743
97	-10.2743
被称为	-10.2745
家居	-10.2746
59	-10.2755
不行	-10.2756
历史上	-10.2764
埋	-10.2765
巴西	-10.2765
电子产品	-10.2773
述	-10.2774
指南	-10.2787
(1)	-10.2788
长江	-10.2788
温柔	-10.2794
逸	-10.2795
ur	-10.2795
普及	-10.2801
竞赛	-10.2802
大连	-10.2807
丈夫	-10.2807
彼此	-10.2809
算是	-10.2809
赖	-10.281
帝国	-10.2811
煎	-10.2821
战士	-10.2823
硬件	-10.2826
日报	-10.283
工作的	-10.2831
也可	-10.2832
有限	-10.2833
它是	-10.2837
浪漫	-10.2839
事物	-10.2839
又是	-10.2845
姐	-10.285
卵	-10.2855
搭	-10.2856
美好	-10.2857
慧	-10.286
篮球	-10.286
存储	-10.2865
现代化	-10.2868
很有	-10.287
长沙	-10.287
手册	-10.2872
主流	-10.2872
烈	-10.2873
有趣的	-10.2875
女友	-10.2875
让她	-10.2876
▁A	-10.288
药品	-10.2884
作文	-10.2888
见到	-10.2893
旨在	-10.2895
税收	-10.2895
塑	-10.2896
最为	-10.2896
事务	-10.2898
却是	-10.2899
转移	-10.29
扶	-10.2901
农民人均纯收入	-10.2904
游戏中	-10.2907
忍	-10.2907
公益	-10.2908
查看	-10.2911
身材	-10.2914
麻烦	-10.2923
剪	-10.2927
un	-10.2927
孩子们	-10.2929
翅	-10.293
骗	-10.2935
很快	-10.2939
创作的	-10.294
温暖	-10.2943
园林	-10.2946
理由	-10.2946
镜头	-10.2947
男孩	-10.2947
参加了	-10.2948
悲	-10.2949
的名字	-10.2951
赚钱	-10.2954
亡	-10.296
精心	-10.2962
含有	-10.2964
窝	-10.2964
示	-10.2966
函数	-10.2967
别墅	-10.2967
小型	-10.2968
中共党员	-10.2969
酶	-10.2969
你会	-10.297
垫	-10.2973
了吗	-10.2975
精选	-10.2976
被人	-10.2979
创办	-10.2981
触	-10.2983
三十	-10.2988
星级酒店	-10.299
翠	-10.299
荣誉	-10.2992
又有	-10.2998
77	-10.3001
祭	-10.3002
电路	-10.3008
人民政府	-10.3011
的答案	-10.3011
的精神	-10.3019
对此	-10.3019
好友	-10.3019
是为了	-10.3021
收费	-10.3021
邓	-10.3022
弦	-10.3026
经济发展	-10.3027
敏感	-10.3029
参数	-10.3033
映	-10.3033
自学	-10.3034
认可	-10.3036
仲	-10.3036
小组	-10.3039
预算	-10.3042
PC	-10.3044
;2、	-10.3048
8.	-10.3048
余篇	-10.3057
挡	-10.306
患	-10.3061
小时候	-10.3062
最多	-10.3068
电器	-10.307
效应	-10.3071
州市	-10.3073
我说	-10.3075
保留	-10.3082
承诺	-10.3088
她是	-10.3088
承认	-10.309
提问	-10.3105
锋	-10.3109
讲述了	-10.3113
决	-10.3113
多项	-10.3114
科普	-10.3118
东南	-10.3118
超越	-10.312
建造	-10.3122
辽宁	-10.3127
迹	-10.3127
妃	-10.3129
鹤	-10.3129
54	-10.3133
扫	-10.3133
付出	-10.3136
不一样	-10.314
将其	-10.3141
共计房屋	-10.3141
一项	-10.3146
改进	-10.3149
罐	-10.3149
蛮	-10.3152
仪式	-10.3158
咬	-10.3161
入门	-10.3167
重复	-10.3174
区别	-10.3174
人事	-10.3175
销量	-10.3182
板块	-10.3184
宠物	-10.3185
诗词	-10.3187
柯	-10.3187
摸	-10.319
二级	-10.319
富有	-10.3192
无线	-10.3193
够	-10.3193
中部	-10.3194
碰	-10.3196
成人	-10.3197
雕	-10.3203
图像	-10.3204
团结	-10.3208
奔	-10.3216
提出了	-10.3217
这类	-10.3218
休息	-10.3219
一个月	-10.3221
印象	-10.3222
运作	-10.3225
是谁	-10.3227
委托	-10.3233
回归	-10.3233
适宜	-10.3238
小姐	-10.3239
▁上海	-10.324
棋	-10.3243
允许	-10.3249
艺术家	-10.325
驱动	-10.3251
范围内	-10.3256
涉	-10.3262
1982	-10.3263
都很	-10.3265
灵活	-10.3266
的目的	-10.3268
途径	-10.3269
大大	-10.3269
股份有限公司	-10.3277
这么多	-10.3279
解读	-10.3282
高达	-10.3282
规	-10.3282
赚	-10.3286
合并	-10.3286
呆	-10.3295
随时	-10.3297
唯	-10.3299
河北省	-10.3303
一半	-10.3306
的样子	-10.331
步骤	-10.331
才会	-10.3311
轨	-10.3314
朋友圈	-10.3316
县城	-10.3317
腔	-10.3317
科学技术	-10.3319
坊	-10.3319
名为	-10.3321
接口	-10.3325
被评为	-10.3327
传统的	-10.3328
卫星	-10.3329
报警	-10.3345
72	-10.3348
碗	-10.3351
盟	-10.3354
一直在	-10.3356
书画	-10.3361
柔	-10.3361
园区	-10.3367
乡村	-10.3372
密度	-10.3373
一群	-10.3377
也不会	-10.3378
过的	-10.3382
钢琴	-10.3383
保养	-10.3383
助理	-10.3383
秘密	-10.3383
谓	-10.3385
安徽省	-10.339
俄	-10.3393
2.0	-10.3394
全世界	-10.3395
槽	-10.3402
霸	-10.3402
济南	-10.3406
)、《	-10.3408
评为	-10.3409
总体	-10.341
备用	-10.341
第六	-10.3412
9%	-10.3413
立体	-10.3414
释放	-10.3415
力度	-10.3415
离婚	-10.3432
占地	-10.3437
宠	-10.3442
一人	-10.3443
反复	-10.3443
照顾	-10.3444
莎	-10.3446
所谓的	-10.345
实际上	-10.345
统	-10.3459
癌	-10.3469
豆腐	-10.3469
我会	-10.3476
也不是	-10.3477
在国内	-10.3478
向上	-10.3481
气质	-10.3482
那么多	-10.3485
层次	-10.3486
遭遇	-10.3487
▁【	-10.3487
下方	-10.3487
海南	-10.3487
教室	-10.3495
可见	-10.3497
日前	-10.3498
灌	-10.35
十五	-10.3504
一道	-10.3509
法学	-10.3511
汉语	-10.3517
▁C	-10.3518
列车	-10.3532
市工商行政管理局登记成立	-10.3533
有一	-10.3536
蛋白质	-10.3537
(2)	-10.3539
茶叶	-10.3541
所在	-10.3542
给他	-10.3546
孩子的	-10.3547
体内	-10.3553
两侧	-10.3557
陪	-10.3557
不但	-10.3557
夺	-10.3559
科技有限公司	-10.3566
订	-10.3567
强烈	-10.3573
一部分	-10.3574
很好的	-10.3575
发明	-10.3577
就不	-10.3577
圆形	-10.3578
现金	-10.3582
马上	-10.3588
巨大的	-10.3591
53	-10.3592
ta	-10.3592
漫	-10.3602
的过程	-10.3602
执法	-10.3602
画家	-10.3603
醋	-10.3603
长约	-10.3605
睡觉	-10.3608
几年	-10.361
名人	-10.3612
听说	-10.3614
禅	-10.3615
训	-10.3618
陶瓷	-10.3629
带有	-10.3631
属性	-10.3635
某个	-10.3636
年获	-10.3637
闪	-10.3638
摄	-10.3639
好看	-10.3642
和其他	-10.365
APP	-10.3651
性和	-10.3654
凶	-10.3654
肖	-10.3655
签约	-10.3657
首都	-10.3663
全程	-10.3663
年开始	-10.3664
绿化	-10.3667
强大	-10.3671
是一本	-10.3674
LED	-10.3675
69	-10.3675
一批	-10.3677
清洗	-10.3682
通用	-10.3682
扇	-10.3683
相应的	-10.3683
原始	-10.3683
1984	-10.3685
曝光	-10.3687
回忆	-10.3687
高温	-10.3693
稀	-10.3694
巷	-10.3695
翔	-10.3697
黎	-10.3697
深刻	-10.3698
东部	-10.37
据说	-10.3701
首届	-10.3704
虚拟	-10.3705
本文	-10.3708
阻	-10.3717
iPhone	-10.3719
一层	-10.3721
鑫	-10.3721
批评	-10.3722
多人	-10.3727
署	-10.3728
满意	-10.3732
国产	-10.3734
碳	-10.3736
年至	-10.3739
一把	-10.3742
蜜	-10.3744
发育	-10.3744
配件	-10.3747
西藏	-10.3749
(18	-10.375
很容易	-10.3751
变成了	-10.3756
江南	-10.3756
劝	-10.3756
的好	-10.3758
幽默	-10.3759
改为	-10.3762
婚礼	-10.3768
半年	-10.377
锐	-10.3772
大多	-10.3775
进攻	-10.3777
享	-10.3778
一段时间	-10.3778
不得不	-10.3779
诗歌	-10.3781
巨大	-10.3786
差异	-10.3787
1983	-10.3787
深圳市	-10.379
的各种	-10.3791
什么是	-10.3791
惨	-10.3793
一定的	-10.3794
奋斗	-10.38
较高	-10.3801
适	-10.3805
体重	-10.3806
总裁	-10.3806
的位置	-10.3807
51	-10.3807
理性	-10.3809
市级	-10.381
电气	-10.3811
卓	-10.3813
更换	-10.3817
害怕	-10.3819
防护	-10.382
赋	-10.3823
孤独	-10.3823
仔	-10.3823
认定	-10.3823
幻	-10.3827
默	-10.3827
的变化	-10.3829
管道	-10.3832
欣	-10.3834
成功的	-10.3834
也在	-10.3835
年轻人	-10.3838
泰国	-10.3839
线上	-10.3839
看完	-10.3847
采访	-10.3851
束	-10.3852
个体	-10.3854
进去	-10.3857
内蒙古	-10.3861
百年	-10.3865
弟	-10.3868
账	-10.387
均为	-10.3871
玩具	-10.3873
途	-10.3874
截	-10.3877
企业的	-10.3882
聪明	-10.3891
交换	-10.3892
非洲	-10.3892
辖	-10.3895
荡	-10.3902
年前	-10.3903
海军	-10.3903
定期	-10.3906
随便	-10.3906
驾	-10.3906
市区	-10.3908
社交	-10.3909
蒜	-10.391
区市场监督管理局登记成立	-10.3913
还没有	-10.3914
去世	-10.3917
秉承	-10.3922
蒋	-10.3926
监察	-10.3927
大气	-10.3928
答主	-10.3931
垂	-10.3937
牺牲	-10.3937
弃	-10.3942
凝	-10.3946
▁the	-10.3951
毫无	-10.3952
承办	-10.3954
顶级	-10.3955
栏目	-10.3956
的声音	-10.3958
传递	-10.3964
配备	-10.3966
植	-10.3967
时光	-10.3969
千年	-10.397
权力	-10.3971
夏天	-10.3972
取消	-10.3976
岁以下的儿童在使用现有的床铺时	-10.3978
转换	-10.3978
福利	-10.398
长度	-10.3985
二等奖	-10.3999
出版社出版	-10.3999
伪	-10.4
组建	-10.4002
有可能	-10.4002
偶尔	-10.4006
茨	-10.401
增加了	-10.4013
解答	-10.4015
kg	-10.4018
有利于	-10.4023
走进	-10.4023
的效果	-10.4028
夫妻	-10.4032
模具	-10.4034
傻	-10.404
专项	-10.4042
诞生	-10.4046
热点	-10.4047
|	-10.4048
卿	-10.4048
将在	-10.4049
真的是	-10.4049
适用	-10.4051
▼	-10.4051
在一个	-10.4056
余人	-10.4073
必然	-10.4074
货物	-10.408
村委会	-10.4083
出生于	-10.4085
定义	-10.4088
逐	-10.4092
明天	-10.4092
直径	-10.4093
自治区	-10.4096
上班	-10.4097
坪	-10.4097
苏联	-10.4098
冲击	-10.4107
ro	-10.4107
活跃	-10.4116
赢得	-10.4118
89	-10.4121
资深	-10.4121
住房	-10.4121
出现在	-10.4123
抑制	-10.4128
连锁	-10.4131
番	-10.4131
滨	-10.4132
退休	-10.4138
傲	-10.4139
因而	-10.4139
解析	-10.4142
编程	-10.4144
社会主义	-10.4144
平面	-10.4144
建材	-10.4147
的意思	-10.4147
频率	-10.4148
幻想	-10.4151
孕	-10.4152
都没	-10.4159
口味	-10.416
纲	-10.4164
充	-10.4166
琳	-10.4167
表明	-10.4168
责	-10.417
框架	-10.4175
临时	-10.4176
鹰	-10.4183
4000	-10.4184
壶	-10.4185
真心	-10.4189
as	-10.4189
开设	-10.4192
猎	-10.4193
避	-10.4196
ol	-10.4197
不住	-10.42
87	-10.4205
生成	-10.4207
喊	-10.421
驱	-10.4212
激光	-10.4215
百姓	-10.4218
透露	-10.4226
人气	-10.4227
好多	-10.4229
坚	-10.423
对话	-10.4231
愁	-10.4231
奈	-10.4232
培	-10.4234
公安	-10.4236
的态度	-10.4239
领先	-10.424
氛围	-10.4241
舰	-10.4241
公务员	-10.4246
照明	-10.4246
化妆	-10.4247
泛	-10.4249
氢	-10.4253
简介	-10.4257
典型	-10.4266
41	-10.4267
发起	-10.4274
摊	-10.4277
大量的	-10.4286
截至	-10.4286
叶片	-10.4289
气体	-10.4289
辑	-10.4294
市委	-10.4294
酒店位于	-10.4296
#	-10.43
忘	-10.4301
实现了	-10.4302
深受	-10.4305
生动	-10.4306
视野	-10.4306
二十	-10.4306
城镇	-10.4307
1.2	-10.4308
生活中	-10.4311
9.	-10.4315
晴	-10.4315
1.6	-10.4316
便利	-10.4317
危害	-10.4317
欧美	-10.4319
的心	-10.4324
抹	-10.4326
时刻	-10.4327
该书	-10.433
腾讯	-10.4339
那里	-10.4341
房产	-10.4348
700	-10.4351
仇	-10.4352
将于	-10.4355
名单	-10.4364
昂	-10.4367
走势	-10.4368
趣	-10.4372
实时	-10.4374
劫	-10.4375
社团	-10.4375
怀疑	-10.4376
图案	-10.4383
:《	-10.4387
面临	-10.4403
说了	-10.4405
姿	-10.4405
毁	-10.4409
盗	-10.4409
遗址	-10.441
想法	-10.4414
不大	-10.4418
播出	-10.4419
10.	-10.4419
柄	-10.4421
最早	-10.4423
疑	-10.4423
少许	-10.4424
0.0	-10.4426
演唱	-10.4427
巴黎	-10.4428
id	-10.443
占地面积	-10.443
桌面	-10.4431
题材	-10.4432
研究中心	-10.4434
前期	-10.4434
1980	-10.4436
如果是	-10.4437
上网	-10.4439
仿	-10.4444
我自己	-10.4449
出席	-10.4453
南北	-10.4453
大神	-10.4456
3.5	-10.4457
叔	-10.4466
最具	-10.4468
流动	-10.447
其中农业人口	-10.4475
大厦	-10.4476
ID	-10.4477
月加入中国共产党	-10.4484
世界上	-10.4484
丢	-10.4486
一句话	-10.45
浸	-10.4505
63	-10.4506
当初	-10.4509
疼痛	-10.4512
缝	-10.4515
▁P	-10.4523
斩	-10.4528
血液	-10.4528
的企业	-10.4529
@	-10.4529
相应	-10.4531
那就	-10.4534
走了	-10.4536
随意	-10.4537
此前	-10.454
尺	-10.454
无奈	-10.454
ia	-10.4542
的一些	-10.4546
亿美元	-10.4548
两个人	-10.4548
叉	-10.4549
凤凰	-10.4554
密码	-10.4554
储	-10.4555
平安	-10.4559
180	-10.456
始建于	-10.4562
课堂	-10.4564
臂	-10.4565
全身	-10.4568
气息	-10.4572
繁	-10.4574
提供在线菜单	-10.4574
有效的	-10.4575
币	-10.4579
事项	-10.4579
主管	-10.4581
自行	-10.4589
替	-10.459
讨厌	-10.4591
叫做	-10.4591
毕业后	-10.4592
内的	-10.4593
正确的	-10.4594
渔	-10.4595
电商	-10.4595
中国的	-10.4597
应用程序	-10.4598
冥	-10.4598
指定	-10.4599
哲	-10.4602
执	-10.4606
冲突	-10.4609
疯狂	-10.4613
一篇	-10.4614
命名	-10.4615
冻	-10.4617
的原则	-10.4619
可以在	-10.4621
困	-10.4622
渐	-10.4624
瓷	-10.4627
最重要的	-10.4627
斗争	-10.4628
猜	-10.4631
气象	-10.4631
局部	-10.4635
依靠	-10.4636
娇	-10.4636
副教授	-10.4643
生理	-10.4647
崔	-10.4649
十三	-10.465
对我	-10.4651
割	-10.4655
招生	-10.4655
引领	-10.4655
起了	-10.4655
期刊	-10.4655
技术开发	-10.4655
是连载于	-10.4656
扩展	-10.4661
以上的	-10.4662
管理工作	-10.4666
中有	-10.4668
财产	-10.4668
79	-10.4669
li	-10.4669
手法	-10.4675
厂商	-10.468
初步	-10.4681
但在	-10.4681
高手	-10.4683
五个	-10.4687
汽	-10.4689
适当	-10.469
360	-10.4691
大队	-10.4691
信息化	-10.4691
有一天	-10.4691
一辆	-10.4705
年来	-10.4706
死了	-10.4708
转型	-10.471
官员	-10.4712
潜	-10.4713
验	-10.4721
不多	-10.4722
甘肃	-10.4722
规格	-10.4723
容量	-10.4723
小游戏	-10.4726
沪	-10.4728
私人	-10.4731
器材	-10.4734
老年	-10.474
商城	-10.4741
数码	-10.4742
;3、	-10.4745
渐渐	-10.4747
各级	-10.475
的男人	-10.4756
es	-10.4757
:0	-10.4757
演讲	-10.4764
累计	-10.4766
让您	-10.4768
妮	-10.4772
是家	-10.4773
裤	-10.4774
忌	-10.4774
我不	-10.4774
财经	-10.478
醇	-10.478
舟	-10.4781
血管	-10.4783
▁3	-10.4786
贡	-10.479
主力	-10.4793
的过程中	-10.4799
格式	-10.4799
科学家	-10.4804
当你	-10.4806
返	-10.4808
筋	-10.4808
年级	-10.4815
一百	-10.4817
一周	-10.4822
妆	-10.4823
十大	-10.4825
捷	-10.4828
应对	-10.4829
依托	-10.4829
出行	-10.4832
五十	-10.4837
的表现	-10.4839
的人生	-10.4847
你是	-10.4851
不算	-10.4854
溶	-10.4863
广州市	-10.4865
午	-10.4866
带来的	-10.4866
复合	-10.4869
职位	-10.4869
华人	-10.487
姚	-10.487
筑	-10.4877
研究员	-10.4877
十八	-10.4879
的女人	-10.488
活力	-10.488
蝶	-10.488
候	-10.4881
想知道	-10.4881
威胁	-10.4883
伦敦	-10.4888
这本书	-10.4888
0.1	-10.4889
奏	-10.489
的力量	-10.4892
温馨	-10.4897
年起	-10.4897
流通	-10.4898
散文	-10.49
无人	-10.49
材质	-10.49
水利	-10.4903
路上	-10.4904
褐色	-10.4904
性质	-10.4905
培育	-10.4907
碱	-10.4908
上方	-10.4909
赠	-10.4911
拿到	-10.4912
吐槽	-10.4914
发生了	-10.4915
有人说	-10.4916
摘	-10.4917
枫	-10.4919
宁波	-10.4922
吻	-10.4923
ic	-10.4923
古典	-10.4925
党的	-10.4932
医学院	-10.4933
期货	-10.4936
加床	-10.4938
快捷	-10.4941
年后	-10.4942
st	-10.4952
持有	-10.4952
大脑	-10.4955
5、	-10.4955
权利	-10.4956
牛奶	-10.4958
屈	-10.496
肯	-10.4966
少数	-10.4969
模块	-10.4971
的价格	-10.4972
尝	-10.4973
僧	-10.4974
潮流	-10.4975
跟着	-10.4976
那是	-10.4977
工作者	-10.4978
荷兰	-10.498
影响力	-10.498
怀孕	-10.4982
受伤	-10.4987
毕业生	-10.4989
短信	-10.4991
多媒体	-10.4991
宝贝	-10.4994
暂时	-10.4995
服务器	-10.4996
250	-10.4998
中药	-10.5001
周末	-10.5002
窑	-10.5003
放心	-10.5005
出演	-10.5005
盈	-10.5007
我知道	-10.5011
灵魂	-10.5012
精灵	-10.5014
优雅	-10.5017
la	-10.502
怎样的	-10.5024
总部	-10.5029
燃	-10.5029
集成	-10.5035
0.2	-10.5035
主演	-10.5036
起点	-10.5038
情况下	-10.5038
千万	-10.504
完整的	-10.5044
62	-10.5046
带动	-10.5048
贪	-10.5051
水泥	-10.5056
百万	-10.5056
幕	-10.5058
三国	-10.5058
污	-10.5059
情节	-10.5059
进展	-10.5062
继承	-10.5063
地区的	-10.5063
轴承	-10.5064
声明	-10.5067
由此	-10.5067
陕西省	-10.5067
选用	-10.5069
73	-10.5071
辽	-10.5073
栏	-10.5073
对待	-10.5075
全体	-10.5077
足够	-10.5077
为您	-10.5078
越南	-10.5081
公民	-10.5081
导师	-10.5083
判	-10.5086
身高	-10.5087
il	-10.5087
兆	-10.5088
选举	-10.509
地产	-10.5091
帽	-10.51
妹妹	-10.5103
别的	-10.5105
辅	-10.5107
出自	-10.5108
离子	-10.5108
俩	-10.5114
织	-10.5116
功率	-10.5121
新颖	-10.5123
火车站	-10.5124
耀	-10.5127
赐	-10.5127
ps	-10.5127
该村到	-10.5128
宾馆	-10.5128
疼	-10.5128
力求	-10.5129
的爱情	-10.5132
据悉	-10.5135
欠	-10.5139
知识产权	-10.5141
出身	-10.5148
心态	-10.5156
一辈子	-10.5157
开关	-10.5157
若干	-10.516
):	-10.516
世界杯	-10.5162
其次	-10.5163
罗马	-10.517
审查	-10.5173
懂得	-10.5173
背后	-10.5175
纽约	-10.5177
相处	-10.5179
乐队	-10.5179
观赏	-10.5183
在哪里	-10.5186
一流	-10.519
是如何	-10.519
跟我	-10.5191
阿尔	-10.5191
桶	-10.5193
债	-10.5196
喜爱	-10.52
早上	-10.5201
职责	-10.5203
种类	-10.5205
金额	-10.5207
屯	-10.5207
烦	-10.5208
畅	-10.5212
年在	-10.5214
图形	-10.5215
营造	-10.5216
违法	-10.5218
密封	-10.5221
全新的	-10.5222
可供	-10.5225
搅拌	-10.5225
面包	-10.5226
饮料	-10.5227
岁月	-10.5227
山西省	-10.523
下跌	-10.5232
平米	-10.5234
爷	-10.5236
各自	-10.5237
糊	-10.5238
激	-10.5241
th	-10.5246
影像	-10.5248
喂	-10.5254
部署	-10.5256
葡萄	-10.5257
妇	-10.5259
主要从事	-10.5259
穿着	-10.5263
为你	-10.5265
牵	-10.5266
栽培	-10.5271
的想法	-10.5271
内涵	-10.5272
颈	-10.5282
不锈钢	-10.5287
意思	-10.5288
资质	-10.5288
ISO	-10.5293
市场的	-10.5294
新建	-10.5307
你就	-10.5308
告诉你	-10.5313
祝	-10.5316
抓住	-10.5317
旋转	-10.5317
冰箱	-10.5319
一开始	-10.5322
桥梁	-10.5325
十一	-10.5326
跃	-10.533
牛肉	-10.5334
ra	-10.5339
▁M	-10.534
不良	-10.534
而在	-10.534
IP	-10.5341
二是	-10.5341
窗口	-10.5343
便于	-10.5353
新人	-10.5355
长得	-10.5361
吉林	-10.5361
信仰	-10.5361
的照片	-10.5362
让自己	-10.5365
证据	-10.5368
激情	-10.537
语音	-10.5373
客房	-10.5373
租赁	-10.5377
童话	-10.538
内容简介	-10.538
邮	-10.5385
这部	-10.5385
110	-10.5392
介	-10.5398
葛	-10.5402
好评	-10.5403
天空	-10.5403
单独	-10.5404
公元	-10.5405
完善的	-10.5405
提到	-10.5407
74	-10.5409
赶紧	-10.5409
的核心	-10.541
没有任何	-10.5412
年被	-10.5415
螺	-10.5417
精华	-10.5421
利率	-10.5421
不然	-10.5426
大街	-10.5431
林业	-10.5435
形势	-10.5436
商标	-10.5438
全方位	-10.544
观看	-10.5441
悬	-10.5442
耗	-10.5443
这也是	-10.5445
关节	-10.5446
de	-10.5446
ly	-10.5448
刮	-10.5448
早已	-10.5449
苯	-10.5454
发动	-10.5455
爱心	-10.546
是怎么	-10.5465
分公司	-10.5465
的目标	-10.5468
斋	-10.5472
达成	-10.5473
大战	-10.5482
编剧	-10.5484
但我	-10.5488
1500	-10.5489
滤	-10.5494
合肥	-10.5495
礼物	-10.5496
果实	-10.5503
终端	-10.5507
丛	-10.5509
一是	-10.551
葬	-10.5511
无毛	-10.5511
清水	-10.5511
配有	-10.5516
为此	-10.5521
总人口	-10.5525
消化	-10.5528
幸	-10.553
初期	-10.5532
交往	-10.5533
颇	-10.5534
申报	-10.5537
据了解	-10.5538
三种	-10.5538
颗粒	-10.5546
现状	-10.5546
颗	-10.5547
蛋糕	-10.5547
因为我	-10.5551
上有	-10.5552
周年	-10.5552
後	-10.5555
同一	-10.5555
创始人	-10.5556
我妈	-10.5559
为基础	-10.556
又名	-10.556
乡镇	-10.5561
做过	-10.5563
短期	-10.5563
磷	-10.5565
东京	-10.5572
高压	-10.5572
简洁	-10.5572
伸	-10.558
见面	-10.5581
悟	-10.5583
重庆市	-10.5586
清新	-10.5587
▁H	-10.5588
没人	-10.5588
坐在	-10.5589
日语	-10.559
免疫	-10.5593
上级	-10.5594
北京大学	-10.5595
顶端	-10.5595
大幅	-10.5597
砸	-10.56
这时	-10.5606
夕	-10.5608
电梯	-10.5609
几天	-10.561
日至	-10.5611
了吧	-10.5611
睡眠	-10.5612
农产品	-10.5612
著有	-10.5616
稻	-10.5616
貌	-10.5618
一方面	-10.562
→	-10.5623
天才	-10.5623
商场	-10.5624
狐	-10.5629
手指	-10.5632
鉴	-10.5634
突	-10.5636
添	-10.5636
接待	-10.5638
客人	-10.5641
水库	-10.5643
为人	-10.5645
唯一的	-10.5646
之旅	-10.5648
尴尬	-10.565
摩托车	-10.5653
踏	-10.5659
有助于	-10.566
暴力	-10.5672
得知	-10.5673
的小说	-10.5677
一大	-10.568
职场	-10.5681
乃至	-10.5684
繁殖	-10.5686
关闭	-10.5687
纺织	-10.5689
常规	-10.5689
层面	-10.5693
撰写	-10.5694
事业单位	-10.5696
熙	-10.5697
般的	-10.5698
江西省	-10.5703
0.3	-10.5705
完成了	-10.5706
人心	-10.5709
便是	-10.5711
空中	-10.5711
转变	-10.5713
采用了	-10.5718
华为	-10.572
融入	-10.572
郊	-10.5722
昆明	-10.5724
最初	-10.5725
玲	-10.5725
惹	-10.5726
多年的	-10.5727
国王	-10.5728
损	-10.5732
”,“	-10.5732
慕	-10.5733
龟	-10.5735
一定会	-10.5736
化的	-10.5738
开拓	-10.5738
不对	-10.5743
出国	-10.5745
1978	-10.5746
损伤	-10.5749
格局	-10.575
荷	-10.5751
臭	-10.5751
跑步	-10.5754
打印	-10.5761
宗旨	-10.5762
自行车	-10.5763
级别	-10.5768
重生	-10.5771
决赛	-10.5773
是我们	-10.5773
延伸	-10.5775
主人公	-10.5776
演绎	-10.5779
到现在	-10.5784
爱上	-10.5785
能不能	-10.5789
艺人	-10.5789
已成为	-10.5793
阶	-10.5794
辣椒	-10.5794
传输	-10.5797
选择上述	-10.5798
高档	-10.5799
邻	-10.58
▁data	-10.5801
民众	-10.5801
促	-10.5802
认知	-10.5802
正面	-10.5807
瓣	-10.5808
杀人	-10.5811
房价	-10.5812
铭	-10.5812
儒	-10.5814
今后	-10.5815
中学生	-10.582
会在	-10.5825
借鉴	-10.5826
算法	-10.5828
武装	-10.583
接收	-10.583
电压	-10.5832
激发	-10.5832
户外	-10.5833
万吨	-10.5833
日期	-10.5837
液体	-10.5838
手工	-10.5839
硕	-10.584
清代	-10.5841
按摩	-10.5842
说我	-10.585
长安	-10.5854
可达	-10.5854
伞	-10.5858
书记	-10.5858
行驶	-10.5862
出门	-10.5863
辈	-10.5864
得以	-10.5868
疾	-10.5871
形状	-10.5877
水分	-10.5878
体制	-10.5878
队员	-10.5878
桌	-10.5878
等人	-10.5879
婴儿	-10.588
业主	-10.5882
第七	-10.5883
股市	-10.5883
盈利	-10.5887
风情	-10.5888
抛	-10.5891
发达	-10.5896
天津市	-10.5896
小学生	-10.5897
单词	-10.5897
贞	-10.59
缓解	-10.5901
缓	-10.5906
星期	-10.5911
犹	-10.5913
隶属于	-10.5914
医师	-10.5914
▁F	-10.5915
电机	-10.5916
:1.	-10.5917
巢	-10.592
遭到	-10.5921
专科	-10.5923
蒙古	-10.5926
亲自	-10.5926
不出	-10.5927
县人	-10.5933
骑士	-10.5933
蜂	-10.5934
不宜	-10.5934
燃烧	-10.5935
高清	-10.5935
有趣	-10.5937
顺序	-10.5941
录取	-10.5941
开通	-10.5942
流畅	-10.5944
有一种	-10.5945
董事长	-10.5945
毅	-10.5947
标准化	-10.5948
饰演	-10.595
见过	-10.5951
酱油	-10.5952
扁	-10.5953
扑	-10.5954
柴	-10.5957
游泳	-10.5958
娃	-10.5958
一对	-10.5959
烫	-10.5961
的经历	-10.5962
袭	-10.5964
觉得自己	-10.5968
廷	-10.5968
数十	-10.5971
年初	-10.5972
ri	-10.5973
下了	-10.5976
1.8	-10.5976
排列	-10.5976
给大家	-10.5987
芯	-10.5989
有限责任公司	-10.5996
调研	-10.5996
93	-10.6002
笼	-10.6002
合金	-10.6005
腐	-10.6006
清理	-10.6006
纪录	-10.6007
se	-10.6009
1981	-10.601
相结合	-10.6011
节奏	-10.6011
涌	-10.6017
厉害	-10.6018
专著	-10.6023
隐藏	-10.6024
什么时候	-10.6026
时空	-10.603
贷	-10.6032
不起	-10.6034
怨	-10.6038
争取	-10.6039
学名	-10.6044
搞笑	-10.6045
MA	-10.6049
的学习	-10.6049
翁	-10.605
但是我	-10.605
其余	-10.6053
踩	-10.6055
组成的	-10.6056
有关部门	-10.606
裙	-10.6061
竞	-10.6062
码头	-10.6062
少量	-10.6073
这个世界	-10.6075
南海	-10.608
消耗	-10.6084
的技术	-10.6086
参赛	-10.6086
发现了	-10.6097
热门	-10.61
92	-10.6102
塑造	-10.6102
细腻	-10.6103
电信	-10.6104
闷	-10.6109
无需	-10.611
账户	-10.6112
给了	-10.6112
秘书	-10.6113
瘤	-10.6118
贫困	-10.6125
弘	-10.6131
看到了	-10.6132
懒	-10.6133
蟹	-10.6133
要么	-10.6136
问题的	-10.6141
二人	-10.6144
夏季	-10.6149
一流的	-10.615
信心	-10.6154
精致	-10.6155
符	-10.616
丙	-10.6161
84	-10.6161
改编	-10.6162
秩序	-10.6167
内存	-10.6167
实战	-10.6168
img	-10.6172
仰	-10.6172
潭	-10.6173
ex	-10.6176
衰	-10.6178
砍	-10.6179
lo	-10.618
各国	-10.618
偶然	-10.6181
上课	-10.6183
股东	-10.6183
毕	-10.6191
体会	-10.6192
▁T	-10.6192
工作室	-10.6197
委员会委员	-10.62
事实上	-10.6201
我都	-10.6203
讲师	-10.6203
场地	-10.6204
射击	-10.6206
真的很	-10.6209
延长	-10.6209
口腔	-10.6212
橡胶	-10.6213
特色服务	-10.6213
杀手	-10.6215
评选	-10.6217
新增	-10.6217
的信息	-10.6219
的意义	-10.6221
手动	-10.6222
时代的	-10.6222
等多种	-10.6237
灰色	-10.6237
可以通过	-10.6239
试图	-10.6239
常见的	-10.6242
是一位	-10.6246
四十	-10.6247
的第一	-10.625
忧	-10.625
家乡	-10.6251
山水	-10.6251
斌	-10.6252
单纯	-10.6253
郁	-10.6253
模特	-10.6254
ter	-10.6256
不幸	-10.6258
国民党	-10.6258
上线	-10.626
合法	-10.6261
%	-10.6264
姬	-10.6264
将来	-10.6264
你说	-10.6265
蜀	-10.6266
眼镜	-10.6267
硅	-10.6267
统治	-10.6275
长时间	-10.6277
多名	-10.6278
电动	-10.6281
做法	-10.6281
主人	-10.6282
美味	-10.6285
康复	-10.6286
个村民小组	-10.6287
83	-10.6288
除外	-10.6291
结论	-10.6296
予以	-10.6296
在全国	-10.6297
祸	-10.6299
三等奖	-10.63
的服务	-10.6301
朴	-10.6307
两位	-10.6311
煤炭	-10.6312
罚	-10.6313
予	-10.6314
一方	-10.6318
年生	-10.6319
竞争力	-10.632
要是	-10.632
菊	-10.632
乘客	-10.6322
式的	-10.6323
势力	-10.6325
想想	-10.6326
土豆	-10.6326
了一下	-10.6332
相遇	-10.6335
智商	-10.6335
王朝	-10.6336
(3)	-10.6337
1979	-10.6339
搭建	-10.634
分别为	-10.6342
之上	-10.6342
拍照	-10.6353
火车	-10.6357
键盘	-10.6359
合格	-10.6359
遮	-10.6361
想起	-10.6361
回去	-10.6362
1949	-10.6362
接着	-10.6362
企业管理	-10.6362
中外	-10.6363
聚集	-10.6364
覆	-10.6367
会出现	-10.6369
差别	-10.6369
法制	-10.637
本品	-10.6373
子女	-10.6373
走出	-10.6378
▁s	-10.6383
哈尔滨	-10.6385
相当于	-10.6386
前进	-10.6387
福州	-10.6388
绳	-10.639
非法	-10.6391
专注于	-10.6391
大于	-10.6391
遇见	-10.6392
会被	-10.6392
一系列	-10.6393
阐述	-10.6393
创立	-10.6396
守护	-10.6397
给出	-10.6398
芽	-10.6401
变形	-10.6402
te	-10.6403
炖	-10.6404
冬季	-10.6404
大桥	-10.6411
反正	-10.6413
巡	-10.6413
澳	-10.6414
简直	-10.6414
电流	-10.6417
发送	-10.6418
▁如果	-10.6419
回应	-10.6421
我现在	-10.6421
桐	-10.6423
娶	-10.6425
本土	-10.6428
暂	-10.6429
倡导	-10.6433
极为	-10.6434
精准	-10.6434
抄	-10.6439
ation	-10.6439
低于	-10.644
生意	-10.6442
一度	-10.6442
问我	-10.6444
积分	-10.6444
原名	-10.6445
高科技	-10.6448
和他	-10.6449
输送	-10.6449
稍微	-10.645
敲	-10.645
生日	-10.6452
打扮	-10.6453
生涯	-10.6454
后悔	-10.6457
语法	-10.6457
不错的	-10.6458
焊	-10.6458
流传	-10.6459
纠结	-10.646
壁纸	-10.6461
目录	-10.6462
拌	-10.6469
使用的	-10.647
盾	-10.6471
引入	-10.6473
扫描	-10.6477
真相	-10.6478
总会	-10.6479
搬	-10.648
先进单位	-10.6481
混凝土	-10.6481
▁中国	-10.6482
的应用	-10.6485
条件下	-10.6485
分局登记成立	-10.6485
▁of	-10.649
滩	-10.6492
反弹	-10.6495
感受到	-10.6497
所属	-10.6497
逢	-10.6498
挤	-10.6505
我认为	-10.6506
分数	-10.6507
http	-10.6509
矮	-10.651
喜剧	-10.6512
婆	-10.6514
诸多	-10.6518
她说	-10.6519
是对	-10.6519
叠	-10.6519
贼	-10.6519
接到	-10.6519
鳞	-10.652
加以	-10.6522
靖	-10.6526
导弹	-10.6532
密切	-10.6534
的基础	-10.6536
本着	-10.6536
可惜	-10.6538
食材	-10.6538
冬天	-10.6541
道理	-10.6541
一步	-10.6543
意味着	-10.6543
返回	-10.6545
强势	-10.6545
应急	-10.6546
之所以	-10.6546
说是	-10.6547
贸	-10.6549
ot	-10.6551
极其	-10.6552
参观	-10.6556
自杀	-10.6559
起到	-10.6561
怡	-10.6563
ang	-10.6564
朵	-10.6565
争议	-10.6569
姑	-10.6571
矣	-10.6574
芬	-10.6578
是怎样的	-10.6579
发生在	-10.6586
开了	-10.6586
优良	-10.6588
找不到	-10.6589
82	-10.6596
的功能	-10.6597
94	-10.6598
删除	-10.6598
实体	-10.6599
察	-10.6599
轨道	-10.66
太平洋	-10.6606
我很	-10.6608
浓度	-10.6612
的音乐	-10.6615
吓	-10.6616
试点	-10.6617
出场	-10.662
布置	-10.6621
饭店	-10.6621
哀	-10.6621
机械设备	-10.6628
功效	-10.6629
以往	-10.6629
告诉我	-10.663
更好地	-10.663
个性化	-10.6634
效益	-10.6637
夸	-10.6641
心灵	-10.6643
历程	-10.6646
该如何	-10.6646
用途	-10.6648
清华大学	-10.665
虹	-10.6651
淀粉	-10.6652
王国	-10.6652
嗯	-10.6653
耕	-10.6653
仿佛	-10.6654
俱	-10.6655
涵	-10.6655
义务	-10.6661
坦	-10.6669
合适的	-10.6669
app	-10.667
不易	-10.6671
爱好	-10.6676
帮忙	-10.668
使其	-10.6681
一时	-10.6682
均有	-10.6683
绘	-10.6683
年以来	-10.6685
太子	-10.6688
季节	-10.669
II	-10.6691
细菌	-10.6693
粥	-10.6693
钢铁	-10.6697
的知识	-10.67
仅仅	-10.67
一首	-10.6703
爪	-10.6711
-2	-10.6716
涵盖	-10.6718
经历了	-10.6719
恶魔	-10.6719
慢性	-10.6719
从未	-10.672
家的	-10.6722
信任	-10.6724
大力	-10.6726
神话	-10.6727
ST	-10.673
隧道	-10.6732
狮	-10.6732
贫	-10.6733
工商	-10.6734
160	-10.6735
跟踪	-10.6738
and	-10.6746
重量	-10.6747
微信号	-10.6749
一类	-10.6751
一体化	-10.6755
正义	-10.6758
面粉	-10.6758
描写	-10.676
上映	-10.6763
间的	-10.6763
对你	-10.6765
援	-10.6766
挖掘	-10.6766
开始了	-10.677
待遇	-10.6771
阔	-10.6779
梯	-10.678
经销商	-10.678
专注	-10.6781
脆	-10.6783
前景	-10.6785
上学	-10.6786
奖项	-10.6792
一书	-10.6793
真诚	-10.6794
帖	-10.6795
惟	-10.6795
的经验	-10.6803
催	-10.6804
的观点	-10.6809
认同	-10.681
冈	-10.681
有一些	-10.6815
彩色	-10.6817
微笑	-10.6818
演奏	-10.6824
县政府	-10.6824
澳门	-10.6825
辽宁省	-10.6825
审判	-10.6825
偶像	-10.6826
撕	-10.683
了一	-10.6833
撤	-10.6838
世界的	-10.6842
窄	-10.6842
在我	-10.6843
这件事	-10.6844
师傅	-10.6847
丧	-10.6848
忘记	-10.6852
虐	-10.6853
取出	-10.6856
鼠标	-10.6858
日起	-10.6863
0.8	-10.6864
慈	-10.6865
完美的	-10.6865
登陆	-10.6868
便捷	-10.6869
中等	-10.6869
智力	-10.6876
愈	-10.6877
车主	-10.6879
天然气	-10.6879
沾	-10.6881
温泉	-10.6882
总部位于	-10.6883
金钱	-10.6883
CD	-10.6883
贵族	-10.6885
闽	-10.6885
为一体的	-10.6885
不一样的	-10.6889
二年	-10.6889
不见	-10.689
主持人	-10.6891
在家	-10.6893
筹	-10.6899
依赖	-10.6905
了解到	-10.6905
联邦	-10.6905
新兴	-10.6905
▁D	-10.6908
意思是	-10.691
可爱的	-10.6911
to	-10.6912
昆	-10.6913
兰州	-10.6914
典型的	-10.6914
导航	-10.6914
垂直	-10.6918
局局长	-10.692
奉献	-10.6921
的结果	-10.6921
名家	-10.6921
市场上	-10.6928
第二天	-10.6933
传感器	-10.6934
址	-10.6936
ie	-10.6936
精美	-10.694
尚未	-10.694
校区	-10.6944
有些人	-10.6945
的社会	-10.6948
停车	-10.6948
在上海	-10.6955
的一部分	-10.6958
日上午	-10.6959
MP	-10.6962
国防	-10.6963
英寸	-10.6964
云南省	-10.6966
复制	-10.6966
承受	-10.698
亏	-10.6983
只需	-10.6983
弹性	-10.6988
线索	-10.6991
随机	-10.6994
更高	-10.6995
膏	-10.7001
说说	-10.7001
阴谋	-10.7001
联合会	-10.7003
为什么要	-10.7006
另一方面	-10.7006
了个	-10.7007
以外	-10.7009
世间	-10.7011
回报	-10.7011
的角色	-10.7013
一带	-10.7014
队长	-10.7015
全区	-10.7016
学生的	-10.7018
供应商	-10.702
崖	-10.7021
每周	-10.7021
转载	-10.7022
▁G	-10.7023
现已	-10.7028
50%	-10.7028
希腊	-10.703
党委	-10.7033
总经理	-10.7033
发放	-10.7036
www	-10.704
神奇	-10.7041
构造	-10.7041
可以说	-10.7045
职能	-10.7045
冒	-10.7045
震荡	-10.7046
等内容	-10.7049
这两	-10.7049
裸	-10.705
祖国	-10.7051
切实	-10.7055
并将	-10.7056
浴	-10.7057
地域	-10.7057
用心	-10.7058
际	-10.7059
口感	-10.7061
年中国	-10.7067
日下午	-10.7071
ー	-10.7076
充电	-10.7076
傅	-10.708
1958	-10.708
救援	-10.7084
方针	-10.7084
视角	-10.7086
薛	-10.7088
过多	-10.7088
战役	-10.7092
贯彻	-10.7093
兼任	-10.7097
恐惧	-10.7099
紧急	-10.7099
存在的	-10.7102
代替	-10.7103
分解	-10.7103
外面	-10.7105
此后	-10.7105
过敏	-10.7108
深化	-10.711
6000	-10.7112
连载	-10.7115
上午	-10.7117
陆续	-10.7117
枯	-10.7119
暨	-10.7127
高等教育	-10.7127
人力资源	-10.7127
吞	-10.7129
不上	-10.7132
抵	-10.7132
注定	-10.7133
勃	-10.7135
标签	-10.7136
门口	-10.7136
的同学	-10.7138
淋	-10.7139
-3	-10.714
很高	-10.7142
于一体的	-10.7142
延续	-10.7142
套房	-10.7143
旁边	-10.7143
为客户提供	-10.7144
氮	-10.7144
欢乐	-10.7149
all	-10.7152
外语	-10.7152
不愿意	-10.7153
缺点	-10.7154
瑞士	-10.716
高等	-10.7161
IC	-10.7161
生死	-10.7162
合适	-10.7166
女主	-10.7168
生活在	-10.7168
桃花	-10.7169
任意	-10.7169
旭	-10.717
产生了	-10.7172
旅客	-10.7174
冷却	-10.7176
过滤	-10.7176
转化	-10.7177
出的	-10.7179
接下来	-10.718
足球运动员	-10.7182
就开始	-10.7183
单身	-10.7185
每天都	-10.7185
仕	-10.7186
严谨	-10.7187
的所有	-10.7188
说法	-10.7188
发酵	-10.7188
铃	-10.719
有过	-10.7192
这两个	-10.7192
十九	-10.7193
了一些	-10.7193
两者	-10.7193
仔细	-10.7195
可靠	-10.7197
其实是	-10.7201
椒	-10.7202
高于	-10.7202
的存在	-10.7203
家中	-10.7203
辖区	-10.7203
惊喜	-10.7203
心脏	-10.7204
球迷	-10.7206
股权	-10.7207
成交	-10.7211
年纪	-10.7211
900	-10.7214
的思想	-10.7215
一样的	-10.7216
演唱会	-10.7216
肿	-10.7217
那时候	-10.7217
花期	-10.7217
长大	-10.7218
对自己	-10.7228
颖	-10.7228
兄	-10.7231
11.	-10.7231
给自己	-10.7232
秘	-10.7235
分会	-10.7235
曲线	-10.7235
友好	-10.7237
纠纷	-10.7242
腹部	-10.7243
物业	-10.7244
重建	-10.7245
还原	-10.7245
进化	-10.7245
的确	-10.7249
捧	-10.7249
厂家	-10.7249
揉	-10.7249
遥	-10.7251
轻轻	-10.7251
分管	-10.7251
勾	-10.7252
进了	-10.7253
出血	-10.7256
熔	-10.7259
奇葩	-10.726
光明	-10.726
夫人	-10.7264
im	-10.7265
踢	-10.7266
军区	-10.7267
日益	-10.7268
齐全	-10.7273
讲座	-10.7275
错了	-10.7278
勺	-10.7278
扔	-10.7281
一同	-10.7284
CS	-10.7284
研究成果	-10.7285
的不同	-10.7286
新区	-10.7286
力学	-10.7287
可用	-10.729
事儿	-10.7291
五金	-10.7293
主办	-10.73
信誉	-10.73
发表论文	-10.7302
派出所	-10.7302
中小学	-10.7304
瑶	-10.7311
爹	-10.7311
地上	-10.7314
情报	-10.7317
火锅	-10.7319
该校	-10.732
彦	-10.7322
处理器	-10.7322
道具	-10.7326
落后	-10.733
扯	-10.7332
澳洲	-10.7334
薇	-10.7334
防御	-10.7336
用的	-10.7336
首席	-10.7337
进修	-10.734
卒	-10.7341
关卡	-10.7341
某种	-10.7342
把自己	-10.7342
东莞	-10.7343
堵	-10.7344
am	-10.7348
月底	-10.7348
年任	-10.735
当今	-10.735
芯片	-10.735
就好	-10.7352
相反	-10.7353
纱	-10.7354
产品质量	-10.7355
网页	-10.7355
天生	-10.7355
弟弟	-10.7357
的概念	-10.7358
帆	-10.7358
宪	-10.7359
号码	-10.7361
核桃	-10.7362
对抗	-10.7362
作了	-10.7363
袖	-10.7363
●	-10.7366
缴	-10.7371
县委	-10.7376
店铺	-10.738
哈哈	-10.7381
学位	-10.7381
汉字	-10.7385
激励	-10.7386
局长	-10.739
住宿	-10.739
者的	-10.739
国民	-10.7391
说过	-10.7391
显然	-10.7395
赢得了	-10.7396
同行	-10.7397
每个人	-10.7398
干扰	-10.7398
截止	-10.74
在网上	-10.7402
机遇	-10.7402
61	-10.7404
拯救	-10.7409
外交	-10.7414
之地	-10.7414
要素	-10.7415
也将	-10.7416
户型	-10.7418
框	-10.7422
线条	-10.7426
宴	-10.7426
尹	-10.7426
IS	-10.7427
部长	-10.743
履行	-10.7435
饶	-10.7437
厨	-10.744
第二次	-10.7441
性别	-10.7442
携带	-10.7442
防水	-10.7444
味精	-10.7445
差距	-10.7446
我家	-10.7447
后者	-10.7447
大奖	-10.7447
大致	-10.7448
谭	-10.7453
既有	-10.7453
铸	-10.7453
客运	-10.7454
闯	-10.7458
与其	-10.7458
难题	-10.7465
脏	-10.7467
礼品	-10.7468
直至	-10.747
不清	-10.7471
痕	-10.7476
评审	-10.7477
时期的	-10.7477
相机	-10.7484
ent	-10.7484
球场	-10.7485
中小企业	-10.7493
过度	-10.7497
奴	-10.7501
浪费	-10.7502
公平	-10.7504
放松	-10.7505
发生的	-10.7508
风云	-10.7509
快递	-10.751
眼前	-10.7511
举报	-10.7511
葡萄酒	-10.7512
为中心	-10.7514
引起的	-10.7518
火箭	-10.7519
县级	-10.7522
AC	-10.7523
琼	-10.7526
产生的	-10.7527
专业化	-10.7533
的城市	-10.7534
油价	-10.7534
逊	-10.7535
二次	-10.7537
赔偿	-10.754
借助	-10.7542
ate	-10.7546
这句话	-10.7547
最新的	-10.7555
验证	-10.7557
腺	-10.756
诊	-10.7561
总理	-10.7563
克斯	-10.7564
看似	-10.7565
伙伴	-10.7566
以其	-10.7573
很喜欢	-10.7573
版权	-10.7576
开车	-10.7577
过于	-10.7579
景点	-10.758
扮演	-10.7581
紫色	-10.7582
两大	-10.7583
裕	-10.7585
酒店提供免费	-10.7586
内科	-10.7587
武术	-10.7588
违反	-10.7588
做什么	-10.759
入口	-10.7591
十四	-10.7592
消灭	-10.7607
风水	-10.7608
还将	-10.7609
那时	-10.761
要注意	-10.7613
的书	-10.7614
兴奋	-10.7618
交通便利	-10.762
命令	-10.7625
奶奶	-10.7625
内外	-10.7627
脸上	-10.7628
q	-10.7628
手续	-10.7632
反馈	-10.7637
4.5	-10.7638
总之	-10.7642
基础设施	-10.7649
测定	-10.765
一枚	-10.765
瑟	-10.7653
再度	-10.7657
管辖	-10.7664
寻求	-10.7666
常识	-10.7666
大楼	-10.7667
130	-10.7668
特定	-10.7669
养成	-10.767
北大	-10.767
主张	-10.7671
打工	-10.7671
遗传	-10.7672
童年	-10.7674
高层	-10.7674
怪兽	-10.7675
粤	-10.7676
十六	-10.7677
很大的	-10.7679
靠近	-10.7683
担保	-10.7686
ill	-10.7688
草原	-10.769
共和国	-10.7691
紧密	-10.7692
步行	-10.7694
颜值	-10.7696
主要有	-10.7696
渴望	-10.7696
全国各地	-10.7697
优先	-10.7699
萍	-10.7701
挥	-10.7702
船舶	-10.7703
老年人	-10.7704
茅	-10.7705
阿里	-10.7705
潜力	-10.7706
咨询服务	-10.7707
歌词	-10.7709
新技术	-10.7709
役	-10.7712
编号	-10.7716
携手	-10.7718
不必	-10.7719
之作	-10.7723
环境保护	-10.7724
进程	-10.7725
家园	-10.7726
真实的	-10.7727
1.4	-10.7728
尸	-10.7728
元年	-10.773
缸	-10.773
党组成员	-10.7733
陷入	-10.7735
一台	-10.7735
有一定	-10.7737
赌	-10.7738
业余	-10.7739
或者是	-10.7742
0.7	-10.7743
技术转让	-10.7744
兼职	-10.7744
是从	-10.7748
烦恼	-10.7751
的选择	-10.7752
12.	-10.7753
押	-10.7758
带来了	-10.776
的女生	-10.7761
遵循	-10.7763
)(	-10.7765
雁	-10.7765
sh	-10.7766
假设	-10.777
所以我	-10.7773
外形	-10.7779
人格	-10.7779
通风	-10.7779
讨	-10.7781
禄	-10.7781
给她	-10.7781
好吧	-10.7782
投票	-10.7782
并于	-10.7782
嘉宾	-10.7786
;4、	-10.7788
排水	-10.7788
爱国	-10.7791
幸运	-10.7792
的那种	-10.7794
0.4	-10.7796
秘书长	-10.78
售后服务	-10.78
水稻	-10.7801
字母	-10.7802
快来	-10.7802
精密	-10.7803
读物	-10.7804
记住	-10.7805
拱	-10.7807
享有	-10.7808
zh	-10.7809
坦克	-10.7809
邀	-10.7811
都说	-10.7813
功夫	-10.7813
经费	-10.7814
选择了	-10.7814
价值观	-10.7818
爷爷	-10.7818
许可	-10.7818
太大	-10.7821
海上	-10.7822
营业	-10.7823
侍	-10.7824
首发	-10.7825
单一	-10.7825
到位	-10.7827
或者说	-10.7829
-12	-10.7829
脊	-10.783
附属	-10.7832
兮	-10.7832
极限	-10.7838
负担	-10.7839
数百	-10.7839
ma	-10.7842
微软	-10.7843
希望能	-10.7844
▁L	-10.7845
白银	-10.7845
浇	-10.7852
未来的	-10.7852
转让	-10.7853
man	-10.7855
0.6	-10.7856
企业家	-10.7857
已被	-10.7858
ce	-10.7863
一一	-10.7865
的语言	-10.7865
公众号	-10.7865
釉	-10.7876
巅峰	-10.7877
徽	-10.7877
一日	-10.7879
花卉	-10.788
不说	-10.7882
其中有	-10.7884
等职	-10.7887
盲	-10.7889
NBA	-10.7889
明明	-10.789
多元	-10.7891
机动车	-10.7892
法律法规	-10.7893
一所	-10.7899
如果有	-10.7903
官网	-10.7904
吃了	-10.7906
没有什么	-10.7908
猪肉	-10.791
首批	-10.791
交警	-10.791
开发的	-10.7914
无关	-10.7916
co	-10.7919
史上	-10.7919
黑龙江	-10.7921
气氛	-10.7923
造成的	-10.7925
蕾	-10.7928
可以用	-10.7929
饲料	-10.793
三次	-10.7931
上帝	-10.7935
库存	-10.7935
性感	-10.7936
每月	-10.7936
琪	-10.7937
监督管理	-10.7938
条例	-10.7939
》,《	-10.794
黄河	-10.794
管理和	-10.7944
VR	-10.7948
的销售	-10.7951
梗	-10.7953
氯	-10.7954
钩	-10.7956
橙	-10.7957
服用	-10.7958
及其他	-10.7962
院长	-10.7962
击败	-10.7964
形容	-10.7965
肚	-10.7967
取代	-10.7969
外部	-10.797
太空	-10.7971
:1、	-10.7971
一世	-10.7971
溶液	-10.7973
春秋	-10.7975
信息技术	-10.7976
没有人	-10.7977
及相关	-10.7979
让孩子	-10.7979
单曲	-10.798
按钮	-10.798
对他	-10.798
修炼	-10.7981
内地	-10.7983
小白	-10.7985
不止	-10.7988
要点	-10.7991
珠宝	-10.7991
不在	-10.7992
分开	-10.7992
的时代	-10.7996
故意	-10.7997
增产	-10.8001
只会	-10.8001
以便	-10.8005
91	-10.8007
绒	-10.801
对面	-10.8012
设计的	-10.8014
退出	-10.8015
物资	-10.8015
坐落于	-10.8017
而又	-10.8018
无聊	-10.8019
生气	-10.802
率先	-10.8022
教堂	-10.8025
我市	-10.8028
的一部	-10.8028
他还	-10.8029
初级	-10.803
碰到	-10.803
让他们	-10.8033
录音	-10.8036
科目	-10.8037
的研发	-10.8039
副主席	-10.8039
物种	-10.8039
精力	-10.8043
一番	-10.8043
那天	-10.8044
注射	-10.8046
礼仪	-10.8047
志愿者	-10.8047
等领域	-10.805
多功能	-10.805
活性	-10.8051
绍	-10.8052
精确	-10.8053
六年	-10.8053
---	-10.8054
勇敢	-10.8054
交叉	-10.8055
提交	-10.8057
更名为	-10.8057
立足	-10.8058
资助	-10.8062
别人的	-10.8064
善良	-10.8065
所在地	-10.8065
ay	-10.8065
长达	-10.8069
热水	-10.8069
之道	-10.8072
拥	-10.8075
形成的	-10.8076
净化	-10.8077
是你	-10.8078
的真实	-10.808
外表	-10.8084
na	-10.8084
诉	-10.8084
页面	-10.8087
美人	-10.809
玫瑰	-10.809
玩法	-10.8091
翻炒	-10.8095
境界	-10.8096
是最	-10.81
修建	-10.8101
的理念	-10.8102
对应	-10.8102
和社会	-10.8102
复杂的	-10.8102
买卖	-10.8105
建有	-10.8108
少数民族	-10.811
匹配	-10.8111
书写	-10.8112
这段	-10.8113
-5	-10.8114
正好	-10.8117
堤	-10.8117
吉他	-10.8118
等工作	-10.8119
友谊	-10.8119
平等	-10.8124
Windows	-10.8128
较多	-10.8128
的文章	-10.8129
命题	-10.8134
第三方	-10.8134
崛起	-10.8136
身为	-10.8136
远离	-10.8138
企业管理咨询	-10.814
大地	-10.814
分枝	-10.8144
▁W	-10.8144
晕	-10.8146
谦	-10.8146
的状态	-10.8146
型号	-10.8146
舱	-10.8153
透过	-10.8153
计量	-10.8155
一面	-10.8156
活泼	-10.8159
如同	-10.816
do	-10.8161
城乡	-10.8161
这一点	-10.8161
等于	-10.8163
小朋友	-10.8165
相关问题	-10.8165
光滑	-10.8168
长的	-10.8168
美观	-10.8172
用了	-10.8174
渗透	-10.8174
71	-10.8179
▁2.	-10.818
闸	-10.8181
正规	-10.8181
却又	-10.8182
的电影	-10.8182
无比	-10.8184
业界	-10.8185
损害	-10.8186
对其	-10.8188
打破	-10.8188
综合性	-10.8189
共计	-10.819
函	-10.8192
就这样	-10.8192
不是很	-10.8194
很简单	-10.8198
猴	-10.8198
披	-10.8199
中原	-10.82
最高的	-10.8205
本书是	-10.8205
糖尿病	-10.8205
只为	-10.8207
中山	-10.8208
实训	-10.8211
春天	-10.8213
马来西亚	-10.8213
陷	-10.8215
四季	-10.8216
担	-10.8219
签订	-10.8222
符号	-10.8223
皇后	-10.8224
逗	-10.8226
特色的	-10.8226
不一定	-10.8229
党委书记	-10.8232
必要	-10.8232
登场	-10.8234
代谢	-10.8235
是否有	-10.8237
长春	-10.8238
1:	-10.8238
那就是	-10.8241
历经	-10.8241
豫	-10.8243
-10	-10.8243
的关键	-10.8249
群岛	-10.8261
近代	-10.8261
替代	-10.8262
安全生产	-10.8263
试题	-10.8263
原子	-10.8264
小麦	-10.8266
上市公司	-10.8266
集合	-10.8267
很重要	-10.8269
的身份	-10.827
1970	-10.8272
航天	-10.8278
相连	-10.8279
物体	-10.8279
白天	-10.828
尽可能	-10.8283
焊接	-10.8283
吉林省	-10.8288
把我	-10.8289
迷茫	-10.8291
热带	-10.8297
基金会	-10.8297
攻略	-10.8302
会上	-10.8307
面团	-10.8308
一点点	-10.8309
补贴	-10.8309
以此	-10.831
2-	-10.831
总监	-10.8311
稳定性	-10.8311
人均	-10.8311
穆斯林	-10.8313
路口	-10.8315
资产管理	-10.8316
并未	-10.832
碟	-10.8324
回收	-10.8324
日电	-10.8325
美好的	-10.8328
依法须经批准的项目	-10.8329
安静	-10.833
弟子	-10.8332
mg	-10.8333
规定的	-10.8336
终身	-10.8337
好奇	-10.8337
优越	-10.8339
伍	-10.8344
酒店为您提供免费的停车服务	-10.8346
招商	-10.8354
空军	-10.8354
op	-10.8356
▁R	-10.8358
枣	-10.8362
择	-10.8362
身份证	-10.8363
▁K	-10.8367
存款	-10.8368
质疑	-10.8368
不去	-10.8369
推出的	-10.8372
英格兰	-10.8373
洛阳	-10.8374
mo	-10.8376
吟	-10.8377
点评	-10.8377
开水	-10.8377
篮	-10.8379
的老	-10.838
芝	-10.838
炭	-10.8383
上去	-10.8388
泊	-10.8388
不受	-10.8391
建于	-10.8391
入手	-10.8398
淘	-10.8405
辛苦	-10.8407
进而	-10.8408
缺陷	-10.8408
相同的	-10.8411
明代	-10.8412
奸	-10.8414
激动	-10.8415
多篇	-10.8415
雀	-10.8423
坚定	-10.8424
挑选	-10.8427
红军	-10.8429
的看法	-10.8429
天赋	-10.8434
极端	-10.8435
司马	-10.8436
网络小说	-10.8436
咽	-10.8438
香味	-10.8439
民生	-10.8441
辩	-10.8442
递	-10.8446
搭载	-10.8446
美的	-10.8448
温州	-10.8451
走到	-10.8452
扶贫	-10.8452
之时	-10.8454
剧本	-10.8458
路面	-10.8458
年降水量	-10.8459
地带	-10.846
出于	-10.8465
衡	-10.8467
是美国	-10.847
的日子	-10.847
拍卖	-10.8471
帐	-10.8471
大门	-10.8472
椭圆形	-10.8472
自从	-10.8478
的生命	-10.8479
杀死	-10.848
高铁	-10.8482
弓	-10.8483
为主的	-10.8485
一遍	-10.8486
亮点	-10.8496
奥运会	-10.85
NO	-10.8501
寂寞	-10.8501
楼主	-10.8502
波动	-10.8505
善于	-10.8506
乘坐	-10.851
严重的	-10.8513
立法	-10.8513
你知道	-10.8514
之际	-10.8515
情侣	-10.8519
头部	-10.852
绣	-10.8521
考验	-10.8525
打电话	-10.8526
在他	-10.8527
管理人员	-10.8529
法定代表人王	-10.8529
的优势	-10.8532
料酒	-10.8534
1200	-10.8535
内容包括	-10.8537
话说	-10.8538
客房时	-10.854
留言	-10.8541
僵尸	-10.8543
喉	-10.8544
钉	-10.8545
进士	-10.8545
公顷	-10.8547
大数据	-10.8548
减轻	-10.8548
樱	-10.8549
平凡	-10.8549
南昌	-10.8552
请参阅客房条款	-10.8553
自身的	-10.8555
新城	-10.8556
眼里	-10.8559
几十	-10.8559
对照	-10.8563
牢	-10.8564
1.0	-10.8564
华夏	-10.8564
CO	-10.8565
生产的	-10.8566
熬	-10.8566
;(	-10.857
其中男性	-10.8571
2-3	-10.8575
渠	-10.8575
部件	-10.8576
啤酒	-10.8578
光学	-10.8579
两国	-10.858
种种	-10.8584
出道	-10.8585
该公司	-10.8585
钦	-10.8588
三角	-10.8589
浙	-10.859
提名	-10.8591
▁a	-10.8591
轮回	-10.8592
名校	-10.8593
的就是	-10.8593
坎	-10.8594
响应	-10.8595
神秘的	-10.8597
迟	-10.8598
▁4	-10.8599
普通人	-10.8601
当下	-10.8602
薯	-10.8606
节约	-10.8607
更大	-10.8607
客户端	-10.861
生产线	-10.861
就被	-10.8611
政协	-10.862
1.3	-10.8621
平行	-10.8622
抱着	-10.8624
战胜	-10.8625
邑	-10.8627
怪物	-10.8627
给人	-10.8628
1956	-10.8629
的女孩	-10.8629
高等学校	-10.8629
女孩子	-10.8632
的理想	-10.8635
叙述	-10.864
后续	-10.8646
阅	-10.865
来讲	-10.8651
学士	-10.8652
黑龙江省	-10.8654
被誉为	-10.8654
繁荣	-10.8658
注入	-10.8661
寿命	-10.8661
的感情	-10.8663
ml	-10.8663
问答社区上	-10.8663
国际化	-10.8663
震撼	-10.8663
花生	-10.8663
匀	-10.8668
清朝	-10.867
简约	-10.867
类小说	-10.8671
活着	-10.8672
日记	-10.8672
胺	-10.8672
肚子	-10.8673
昏	-10.8674
高三	-10.8676
呵呵	-10.8679
上来	-10.8681
对她	-10.8683
独家	-10.8686
制成	-10.8688
并对	-10.8689
进出口	-10.869
高兴	-10.869
分别是	-10.8692
报纸	-10.8696
有农户	-10.8697
验收	-10.8697
敷	-10.8699
的心理	-10.87
的数据	-10.8701
修订	-10.8706
但他	-10.8709
汝	-10.8711
慈善	-10.8712
美学	-10.8712
失去了	-10.8713
任教	-10.8713
以下简称	-10.8715
期望	-10.872
由中国	-10.8721
处罚	-10.8721
学校的	-10.8725
提取	-10.8726
补偿	-10.8727
东南亚	-10.873
去做	-10.8733
在日本	-10.8734
风味	-10.8736
140	-10.8738
个小时	-10.8738
比赛中	-10.8738
前沿	-10.8739
也就是说	-10.8739
阻止	-10.8742
me	-10.8742
再加上	-10.8744
胡萝卜	-10.8744
son	-10.8746
日子	-10.8748
技法	-10.875
太平	-10.875
就读	-10.8754
最多的	-10.8756
乾隆	-10.8756
拿着	-10.8761
高血压	-10.8761
观光	-10.8763
线下	-10.8763
od	-10.8766
达到了	-10.8767
趣味	-10.8768
气温	-10.8769
学期	-10.8771
的艺术	-10.8771
有钱	-10.8773
石头	-10.8774
开发区	-10.8777
结局	-10.8777
年第	-10.8779
以免	-10.878
的现象	-10.8782
ine	-10.8783
革	-10.8784
养老	-10.8784
有一定的	-10.8785
和发展	-10.8785
债券	-10.8786
轿车	-10.8787
酒吧	-10.8791
一声	-10.8796
文化艺术	-10.8797
医科大学	-10.8797
博士学位	-10.8797
结束后	-10.8799
尽快	-10.8802
贵州省	-10.8803
本科生	-10.8804
爱你	-10.8805
们的	-10.8806
实用性	-10.8809
爵	-10.881
笔记	-10.8811
陆军	-10.8815
度过	-10.8816
各方面	-10.8817
期限	-10.8817
牙齿	-10.8823
恶心	-10.8826
0.9	-10.8827
竖	-10.8828
捞出	-10.8834
枕	-10.8834
品味	-10.8837
而来	-10.8839
捕	-10.8841
邮件	-10.8842
貌似	-10.8844
前来	-10.8844
口碑	-10.8845
界的	-10.8846
极具	-10.8849
操作系统	-10.8856
籍足球运动员	-10.8856
ge	-10.8858
IOS	-10.8858
冶金	-10.8859
是很	-10.8861
饱	-10.8861
另有	-10.8862
架构	-10.8864
1-	-10.8864
奇迹	-10.8868
基础知识	-10.8868
炫	-10.8876
笑话	-10.8878
に	-10.8879
总建筑面积	-10.888
你能	-10.888
听力	-10.8881
不高	-10.8882
抚	-10.8884
能在	-10.8885
度假	-10.8887
阳台	-10.8887
类型的	-10.8888
播种	-10.8888
芝麻	-10.8889
一处	-10.8893
风光	-10.8898
贱	-10.89
浏览	-10.89
亲戚	-10.8905
跪	-10.891
凹	-10.891
香菇	-10.8912
爱的	-10.8912
召	-10.8914
第八	-10.8916
AR	-10.8919
这场	-10.8921
均可	-10.8921
就没有	-10.8921
薪	-10.8921
请求	-10.8926
乐器	-10.8928
的成绩	-10.8931
观测	-10.8935
锅中	-10.8938
做成	-10.8938
昆虫	-10.8939
了许多	-10.8939
使命	-10.894
后果	-10.894
家属	-10.8942
20%	-10.8945
树立	-10.8946
表情	-10.8948
论述	-10.8948
水晶	-10.8948
执导	-10.895
软件开发	-10.8951
里面的	-10.8951
攀	-10.8951
后卫	-10.8953
亮相	-10.8955
联合国	-10.8956
七年	-10.8957
台北	-10.8958
管理局	-10.8959
特殊的	-10.896
看书	-10.8961
实务	-10.8961
都被	-10.8962
三人	-10.8963
小镇	-10.8963
服务中心	-10.8964
报考	-10.8967
储存	-10.8968
错过	-10.8969
约翰	-10.897
雕塑	-10.8978
审美	-10.8979
清华	-10.8979
乐园	-10.898
不爱	-10.898
远程	-10.8984
撰	-10.8984
比较好	-10.8987
逛	-10.8987
无锡	-10.8988
ir	-10.8989
模仿	-10.8989
10%	-10.899
报刊	-10.899
做事	-10.8991
岁时	-10.8992
诉讼	-10.8993
千克	-10.8994
双手	-10.8996
协作	-10.8996
新生	-10.8996
洒	-10.8997
块钱	-10.8998
保温	-10.8998
痴	-10.8998
举办的	-10.9
海域	-10.9001
中考	-10.9001
立刻	-10.9002
售价	-10.9003
有机会	-10.9004
液压	-10.9004
1964	-10.9007
未能	-10.9008
活动的	-10.9009
颂	-10.901
耳机	-10.9011
感冒	-10.9012
有线电视	-10.9014
的标准	-10.9014
▁I	-10.9015
国道	-10.9018
摔	-10.902
配方	-10.902
士兵	-10.9021
不怕	-10.9022
崩	-10.9023
与其他	-10.9024
储备	-10.9024
涨幅	-10.9024
战术	-10.9024
一个个	-10.9026
狱	-10.9026
项目的	-10.903
卫视	-10.9033
投诉	-10.9034
三维	-10.9035
客服	-10.9036
名师	-10.9037
1976	-10.9039
到底是	-10.9042
拐	-10.9043
中国古代	-10.9043
压缩	-10.9045
1950	-10.9047
殷	-10.9048
税务	-10.905
这种情况	-10.9052
远远	-10.9052
匹	-10.9052
当时的	-10.9054
知友	-10.9055
小儿	-10.9056
抗日	-10.9057
咏	-10.9059
历代	-10.9059
疗法	-10.906
次数	-10.906
平常	-10.9065
烹饪	-10.9067
不超过	-10.9067
分割线	-10.9069
和我	-10.907
志愿	-10.9071
拌匀	-10.9072
TA	-10.9072
区间	-10.9072
同学们	-10.9073
不满	-10.9076
十字	-10.9077
出售	-10.9088
乐趣	-10.9088
姐妹	-10.9089
://	-10.9089
答题	-10.909
歪	-10.9091
2.2	-10.9093
罩	-10.9094
躲	-10.91
新车	-10.91
土耳其	-10.91
大一	-10.9101
耐心	-10.9102
信用卡	-10.9104
不明	-10.9105
弘扬	-10.9105
程序员	-10.9106
贯	-10.9109
女王	-10.9109
自觉	-10.9116
教你	-10.9116
是国内	-10.9118
外界	-10.9118
多元化	-10.9118
疯	-10.9119
-9	-10.9121
消毒	-10.9121
AT	-10.9126
几何	-10.9129
一身	-10.913
本公司	-10.9135
零件	-10.9137
找到了	-10.9137
写了	-10.9141
孕妇	-10.9141
不管是	-10.9142
发电	-10.9143
籽	-10.9143
当事人	-10.9149
畅销	-10.915
秋季	-10.9153
称之为	-10.9154
go	-10.9155
公子	-10.9155
繁华	-10.9155
皇家	-10.9158
社会科学	-10.9159
不愿	-10.916
安卓	-10.916
▁to	-10.9163
no	-10.9165
去看	-10.9167
的最佳	-10.9168
奥运	-10.9168
外汇	-10.9169
巩固	-10.9169
禾	-10.9169
划分	-10.9169
转向	-10.9169
家电	-10.917
遇到了	-10.9172
博士生导师	-10.9174
的爱	-10.9176
放大	-10.9178
新手	-10.9178
ap	-10.9179
甩	-10.9179
淮	-10.918
涂料	-10.9182
权益	-10.9182
OS	-10.9186
白糖	-10.9187
整治	-10.9193
天堂	-10.9193
不变	-10.9193
三级	-10.9193
IN	-10.9195
扩张	-10.9196
棱	-10.9199
有耕地	-10.92
系列产品	-10.9203
关联	-10.9204
克服	-10.9205
国家队	-10.9207
尼亚	-10.9209
ut	-10.921
好吃	-10.9215
黏	-10.9219
陪伴	-10.9222
辉煌	-10.9225
构	-10.9226
手中	-10.9226
诠释	-10.9227
不论	-10.9229
我还	-10.9229
供电	-10.923
想着	-10.9231
太阳能	-10.9232
自助	-10.9232
描绘	-10.9233
的儿子	-10.9234
意识到	-10.9237
下属	-10.9238
弧	-10.9238
回国	-10.9242
感兴趣	-10.9243
两岸	-10.9246
长城	-10.9246
瑞典	-10.9253
癌症	-10.9253
喜欢的	-10.9253
钻石	-10.9257
风雨	-10.9258
证实	-10.9259
文化的	-10.9261
走过	-10.9262
几百	-10.9264
五大	-10.9264
少儿	-10.9267
第二届	-10.9267
在内的	-10.9267
法定代表人张	-10.9269
坤	-10.9271
燃料	-10.9271
骚	-10.9271
已经成为	-10.9277
止损	-10.9278
住在	-10.929
合作伙伴	-10.9291
』	-10.9291
忘了	-10.9293
封闭	-10.9293
狠	-10.9294
『	-10.9294
是这样的	-10.9294
沿海	-10.9296
展会	-10.9299
酥	-10.93
武汉市	-10.9301
来源于	-10.9303
一期	-10.9309
甘肃省	-10.931
拓	-10.9312
这条	-10.9314
主机	-10.9315
原文	-10.9316
的食物	-10.9318
8000	-10.9319
学家	-10.9321
频繁	-10.9324
强烈的	-10.9324
办事处	-10.9325
合理的	-10.9327
向前	-10.9327
入学	-10.9328
电磁	-10.9331
较低	-10.9332
金牌	-10.9332
出台	-10.9334
充满了	-10.934
车身	-10.9342
受理	-10.9344
主要内容	-10.9345
锦标赛	-10.9347
的秘密	-10.9348
上演	-10.9348
彼	-10.9348
下设	-10.9351
一幅	-10.9354
了他	-10.9354
棘	-10.9356
萝卜	-10.9356
暑假	-10.9357
源于	-10.9361
地狱	-10.9365
素材	-10.9366
艰难	-10.9366
众人	-10.9368
1960	-10.9369
法定代表人李	-10.937
场合	-10.937
酯	-10.9371
的部分	-10.9372
区分	-10.9374
是一所	-10.9376
途中	-10.9376
无情	-10.9377
岩石	-10.9377
握	-10.9381
不容易	-10.9381
成立了	-10.9381
落地	-10.9383
指示	-10.9383
和她	-10.9385
吵	-10.9386
可在	-10.9388
5.5	-10.9389
脱离	-10.9389
笔者	-10.939
顶尖	-10.9391
很久	-10.9392
毗邻	-10.9394
之内	-10.9395
物业管理	-10.9395
水准	-10.9396
纵横	-10.9396
多么	-10.9397
女主角	-10.9399
亲子	-10.94
硕士学位	-10.9406
愉快	-10.9406
以人为本	-10.9407
杰出	-10.941
菲律宾	-10.941
的价值	-10.9411
灯光	-10.9415
可以刷卡	-10.9415
严肃	-10.9418
其间	-10.942
袭击	-10.9421
▁E	-10.9421
激素	-10.9421
也好	-10.9422
nbsp	-10.9422
世界各地	-10.9424
禽	-10.9424
聚会	-10.9425
但也	-10.9426
ng	-10.9427
1962	-10.9429
讲话	-10.9431
商贸	-10.9434
对接	-10.9434
雕刻	-10.9435
因为他	-10.9435
创造了	-10.9435
引用	-10.9437
较好	-10.9438
狭	-10.944
大胆	-10.9445
姿势	-10.9445
▁李	-10.9447
泡沫	-10.9448
1965	-10.9451
13.	-10.9452
你想	-10.9453
脾气	-10.9454
侨	-10.9455
を	-10.9456
拿出	-10.9457
留在	-10.9457
获悉	-10.9461
悲剧	-10.9463
考古	-10.9463
ph	-10.9464
领袖	-10.9464
发掘	-10.9464
的地位	-10.9467
假如	-10.9469
仪表	-10.947
出租	-10.9471
都知道	-10.9471
保修	-10.9471
纳入	-10.9474
衫	-10.9474
一眼	-10.9475
卓越	-10.9478
公交车	-10.9479
买房	-10.9479
引擎	-10.9485
逾	-10.9492
棍	-10.9492
溜	-10.9494
浑	-10.9494
发布的	-10.9496
17.	-10.9496
万美元	-10.9496
入侵	-10.9498
箭	-10.9499
卧室	-10.9502
登录	-10.9504
摆脱	-10.9506
暮	-10.951
81	-10.951
谈判	-10.951
体质	-10.9513
急性	-10.9516
内置	-10.9518
历史的	-10.9518
年出版的图书	-10.9518
六个	-10.9519
30%	-10.9521
素质教育	-10.9522
之人	-10.9523
漂亮的	-10.9524
采集	-10.9524
巫	-10.9524
一个小	-10.9527
工艺品	-10.9527
言情小说	-10.9529
敦	-10.9529
摄像头	-10.953
的教学	-10.9531
大火	-10.9531
um	-10.9532
溢	-10.9533
支付宝	-10.9535
新能源	-10.9536
看出	-10.9536
堪	-10.9537
几次	-10.9541
订单	-10.9543
八年	-10.9544
泄	-10.9545
港口	-10.9547
较大的	-10.955
放置	-10.955
回顾	-10.9551
普通的	-10.9552
排除	-10.9555
中介	-10.9557
券	-10.956
的钱	-10.956
街头	-10.9561
起义	-10.9561
友情	-10.9561
河流	-10.9564
勿	-10.9565
棚	-10.9565
勇气	-10.9567
违	-10.9568
渗	-10.9568
遗憾	-10.9569
海岸	-10.9572
明显的	-10.9572
的命运	-10.9572
防范	-10.9578
容器	-10.958
节日	-10.9581
为中国	-10.9581
分散	-10.9583
小心	-10.9586
效力	-10.9589
的理论	-10.9592
km	-10.96
复仇	-10.9601
区内	-10.9601
捏	-10.9602
掉了	-10.9602
一般的	-10.9604
模糊	-10.9605
坚强	-10.9609
把它	-10.961
庞	-10.9615
畜牧业收入	-10.9616
热血	-10.9617
央视	-10.962
嫌	-10.9621
本届	-10.9621
节省	-10.9623
杭州市	-10.9625
尉	-10.9627
室友	-10.9628
在职	-10.9631
了不少	-10.9631
纺	-10.9632
邵	-10.9633
好处	-10.9633
鹅	-10.9634
兑	-10.9636
-20	-10.9637
开业	-10.9637
SUV	-10.9638
这本	-10.9639
集团公司	-10.964
村庄	-10.9641
月初	-10.9647
一千	-10.9648
赔	-10.9649
默默	-10.965
1975	-10.9652
的理解	-10.9654
游戏大小为	-10.9657
伐	-10.9657
直观	-10.9658
交互	-10.9659
年出生	-10.9661
战场	-10.9662
早餐	-10.9662
加油	-10.9669
制造业	-10.967
当选	-10.9671
他也	-10.9672
撑	-10.9673
考虑到	-10.9674
排放	-10.9675
用水	-10.9675
点赞	-10.9678
团购	-10.9679
系数	-10.968
带给	-10.9681
混乱	-10.9682
也不能	-10.9683
的经典	-10.9688
有两个	-10.9689
数据显示	-10.969
掩	-10.969
知识点	-10.9695
电缆	-10.9698
情景	-10.9699
作曲	-10.97
阳县	-10.9702
one	-10.9705
表彰	-10.9706
生物学	-10.971
业内	-10.971
十几	-10.9712
有乡村人口	-10.9713
利亚	-10.9713
乐观	-10.9716
困扰	-10.9716
绘制	-10.9716
中毒	-10.9725
的速度	-10.9725
6、	-10.9726
1-2	-10.9734
钝	-10.9735
表现出	-10.9735
比对照	-10.9737
赛车	-10.9739
跟随	-10.974
80%	-10.974
成型	-10.9742
桩	-10.9744
每个人都	-10.9745
预警	-10.9746
客户的	-10.9747
防守	-10.9748
背面	-10.9749
基础上	-10.975
有停车位	-10.975
全长	-10.9751
所需	-10.9752
协同	-10.9757
市政	-10.9757
3-	-10.976
农场	-10.976
刊物	-10.9763
明朝	-10.9764
日内	-10.9765
纳米	-10.9766
竞技	-10.9768
钥匙	-10.977
高峰	-10.9771
面上	-10.9776
多多	-10.9776
ac	-10.9778
帮你	-10.9779
碰撞	-10.9782
食堂	-10.9786
2)	-10.9789
知名度	-10.9791
做一个	-10.9792
技术和	-10.9796
国立	-10.9797
叹	-10.9797
看到的	-10.98
强制	-10.9801
勇士	-10.9804
仅有	-10.9805
夷	-10.9807
停车场	-10.9808
平静	-10.9809
千里	-10.981
较高的	-10.9811
这里的	-10.9814
疾病的	-10.9818
建筑物	-10.9823
油画	-10.9824
文本	-10.9825
底部	-10.9825
邱	-10.9828
被迫	-10.9828
相继	-10.9828
日军	-10.9828
科学的	-10.9829
宝石	-10.983
受到了	-10.983
的消息	-10.9834
的说法	-10.9834
廉	-10.9835
每一位	-10.9839
上部	-10.9839
稳定的	-10.9839
之子	-10.984
标题	-10.984
教会	-10.9841
等问题	-10.9842
ee	-10.9843
两条	-10.9843
无力	-10.9843
白云	-10.9845
洋葱	-10.9846
堪称	-10.9846
渝	-10.985
不仅是	-10.985
科幻	-10.9851
才有	-10.9851
贯穿	-10.9853
-8	-10.9854
约定	-10.9855
ue	-10.9857
鄂	-10.9859
还不	-10.986
的支持	-10.986
车间	-10.9861
东风	-10.9861
CA	-10.9865
参照	-10.9871
方言	-10.9872
一组	-10.9872
主导	-10.9873
坠	-10.9873
热量	-10.9877
长相	-10.9878
新一代	-10.9878
较小	-10.9879
的手机	-10.9881
年人口	-10.9882
一笑	-10.9884
抬	-10.9885
我省	-10.9886
为主要	-10.9887
万物	-10.9887
仓储	-10.9889
保安	-10.989
有许多	-10.9894
姓名	-10.9895
可谓	-10.9897
技术人员	-10.9897
的具体	-10.9898
年被评为	-10.9899
墨西哥	-10.9899
章节	-10.9899
广泛的	-10.99
完了	-10.9903
不断的	-10.9903
军人	-10.9904
恭	-10.9906
切换	-10.9906
的生产	-10.9907
讲究	-10.9908
瞎	-10.991
行走	-10.9913
现在效力于	-10.9913
疲劳	-10.9916
钾	-10.9916
隶属	-10.9916
辞职	-10.9919
弥	-10.9922
两面	-10.9923
外地	-10.9923
控股	-10.9926
保卫	-10.9928
岂	-10.9928
的父亲	-10.9929
浸泡	-10.993
唱片	-10.993
鼠标点击	-10.9932
削	-10.9932
器官	-10.9933
蒲	-10.9933
得出	-10.9933
商店	-10.9933
14.	-10.9934
楠	-10.9934
疑问	-10.9934
肉牛	-10.9935
一根	-10.9936
履	-10.9937
厚度	-10.9938
焦点	-10.9938
市人民政府	-10.9939
类游戏	-10.9939
两天	-10.9939
用药	-10.994
看上去	-10.994
有力	-10.994
查处	-10.9941
赋予	-10.9944
地说	-10.9947
珍惜	-10.995
了我	-10.9955
出现的	-10.9958
巾	-10.9961
小火	-10.9961
和你	-10.9962
总投资	-10.9962
日晚	-10.9968
理工大学	-10.9968
伊朗	-10.9968
从中	-10.9972
涉嫌	-10.9973
全力	-10.9973
拒	-10.9974
央行	-10.9974
理事	-10.9975
宁夏	-10.9979
青海	-10.9979
她在	-10.998
中国大陆	-10.9982
股价	-10.9984
什么都	-10.9987
等方面的	-10.9987
出土	-10.9988
MI	-10.999
解决了	-10.9993
约为	-10.9995
钠	-10.9995
为其	-10.9996
看得	-11
各有	-11.0004
歧视	-11.0006
任命	-11.0008
15.	-11.0012
公正	-11.0013
中国共产党	-11.0017
送到	-11.0017
低温	-11.0022
-4	-11.0023
埃及	-11.0024
处置	-11.0025
但却	-11.0026
二维码	-11.0027
不动	-11.0031
当日	-11.0032
附近的	-11.0033
技术的	-11.0034
;2.	-11.0035
进来	-11.0039
清除	-11.0041
队友	-11.0043
发病	-11.0043
体现了	-11.0043
情怀	-11.0049
磊	-11.005
藻	-11.005
露出	-11.0051
试试	-11.0053
主治	-11.0055
弯曲	-11.0055
编写的	-11.0056
发型	-11.0057
做出了	-11.0057
灵感	-11.0058
个别	-11.0058
年参加	-11.0059
的开发	-11.0061
驾驶员	-11.0061
通报	-11.0066
杉	-11.0066
召唤	-11.0068
等农作物	-11.0069
安置	-11.0069
机电	-11.007
国有	-11.007
我还是	-11.0071
骨干	-11.0072
希望大家	-11.0074
豹	-11.0075
123	-11.0078
许可证	-11.0079
这项	-11.008
放下	-11.0081
第一时间	-11.0083
南京市	-11.0083
绝望	-11.0086
为核心	-11.0094
一定是	-11.0097
太原	-11.0098
大人	-11.0098
提高了	-11.01
的安全	-11.0101
他就	-11.0102
改变了	-11.0105
经典的	-11.0105
演技	-11.0105
了自己的	-11.0108
倾向	-11.0108
翘	-11.011
的质量	-11.0111
卜	-11.0111
通俗	-11.0112
廊	-11.0115
毛泽东	-11.012
350	-11.0121
rawwidth	-11.0122
身边的	-11.0123
这也	-11.0124
对中国	-11.0126
真空	-11.0126
海拔高度	-11.0129
生育	-11.0132
可作为	-11.0133
的女儿	-11.0134
高品质	-11.0135
新华	-11.0135
例子	-11.0136
一口	-11.0139
SD	-11.0144
喻	-11.0148
的空间	-11.0148
两名	-11.0152
华东	-11.0154
是连载于起点中文网的网络小说	-11.0155
失望	-11.0157
路径	-11.016
大规模	-11.0165
发布会	-11.017
备案	-11.0171
vi	-11.0176
锤	-11.0176
水中	-11.0176
职称	-11.018
条款	-11.0183
是有	-11.0184
平原	-11.0186
惜	-11.0186
发现自己	-11.0186
更大的	-11.0187
决心	-11.0187
护士	-11.0188
ン	-11.0192
纪录片	-11.0196
收录了	-11.0196
的文字	-11.0196
详细内容	-11.0196
佑	-11.0197
铅	-11.0197
启发	-11.0198
热线	-11.0199
的需要	-11.0201
硬盘	-11.0201
哇	-11.0205
越来越多	-11.0205
详细的	-11.0206
不存在	-11.0207
争夺	-11.0208
网游	-11.0209
在意	-11.0213
ell	-11.0214
我不是	-11.0215
纽	-11.0222
可怜	-11.0224
▁2016	-11.0224
的相关	-11.0224
暴露	-11.0227
兴建	-11.0228
等设施	-11.0231
Re	-11.0231
蝴蝶	-11.0232
京东	-11.0233
的身体	-11.0234
局副局长	-11.0234
杭	-11.0238
最有	-11.0239
缠	-11.0239
省政府	-11.0241
谢谢大家	-11.0244
不像	-11.0244
中医药	-11.0247
直属	-11.0249
3.0	-11.0249
分成	-11.0249
是一名演员	-11.025
美联储	-11.0251
支队	-11.0252
光盘	-11.0254
▁深圳市	-11.0257
的教育	-11.0257
的性格	-11.0258
扩	-11.0259
才知道	-11.026
石家庄	-11.0265
1945	-11.0267
ul	-11.0267
产业发展	-11.0267
也被	-11.0267
鱼类	-11.027
星球	-11.0272
华丽	-11.0272
最后一	-11.0272
分裂	-11.0275
账号	-11.0276
我爸	-11.0277
任职	-11.0281
菇	-11.0282
世人	-11.0282
签证	-11.0283
的一切	-11.0283
花钱	-11.0284
为广大	-11.0285
杏	-11.0286
占领	-11.0288
第九	-11.0289
基督教	-11.029
唱歌	-11.0292
不仅仅是	-11.0292
住了	-11.0292
社会的	-11.0294
海关	-11.0295
1968	-11.0301
出色	-11.0302
受欢迎	-11.0304
舆论	-11.0305
某一	-11.0306
的方向	-11.0307
情人	-11.0308
的最新	-11.0311
脾	-11.0312
悲伤	-11.0314
编著	-11.0314
疆	-11.0314
性强	-11.0316
仆	-11.0317
占据	-11.0317
名词	-11.0318
主场	-11.0318
Al	-11.0322
支出	-11.0322
山县	-11.0322
柔软	-11.0323
的梦想	-11.0328
▁w	-11.0328
谢邀	-11.0329
经相关部门批准后方可开展经营活动	-11.0331
如有	-11.0334
反射	-11.0334
演变	-11.0334
木材	-11.0335
翡翠	-11.0336
▁N	-11.0339
以内	-11.0339
梳理	-11.034
款式	-11.0346
大夫	-11.0346
卤	-11.0352
生命的	-11.0353
1977	-11.0353
九年	-11.0354
的规定	-11.0356
推理	-11.0356
几种	-11.0361
在那里	-11.0361
全民	-11.0362
领导人	-11.0362
优美	-11.0369
5.00	-11.0369
之家	-11.0372
星星	-11.0373
异界	-11.0374
一直是	-11.0376
没错	-11.0377
乾	-11.0379
放到	-11.0382
不堪	-11.0383
组织的	-11.0384
....	-11.0386
同性恋	-11.0386
刑事	-11.0386
即便	-11.0391
婴儿床	-11.0391
4-	-11.0392
并以	-11.0394
的最大	-11.0394
传动	-11.0394
中午	-11.0395
亨	-11.0396
师范	-11.0396
激烈	-11.0397
(16	-11.04
黑白	-11.0402
却不	-11.0403
第二个	-11.0404
蓬	-11.0405
公式	-11.0407
同比增长	-11.0408
燃气	-11.0408
cn	-11.041
指的是	-11.041
TV	-11.0411
习题	-11.0413
刚开始	-11.0413
路人	-11.0414
遍布	-11.0416
的文化	-11.0417
环境下	-11.0417
旦	-11.0418
是要	-11.0422
是我国	-11.0424
独自	-11.043
忍不住	-11.0433
领先的	-11.0433
的区别	-11.0434
货运	-11.0436
凑	-11.0438
祠	-11.0439
教研	-11.0442
足以	-11.0447
字体	-11.0447
广播电视	-11.0448
」?	-11.045
部落	-11.045
智能化	-11.045
专栏	-11.0452
告知	-11.0453
代表作品有	-11.0454
多样	-11.0454
吏	-11.0455
充分发挥	-11.0456
极大	-11.0457
人均耕地	-11.0458
推行	-11.0458
▁|	-11.0458
该片	-11.0459
副局长	-11.0459
我不知道	-11.0461
漂	-11.0462
作风	-11.0463
bo	-11.0465
第一名	-11.0465
马克思主义	-11.0465
好吗	-11.0465
得了	-11.0467
董事	-11.0467
此书	-11.0471
办事	-11.0472
的成长	-11.0473
主要以	-11.0475
SP	-11.0476
..	-11.0477
中级	-11.0478
16.	-11.0479
反映了	-11.0479
平均亩产	-11.0479
蜡	-11.0484
白菜	-11.0485
建筑工程	-11.0486
羡慕	-11.0487
娃娃	-11.049
祝福	-11.049
承包	-11.0491
一股	-11.0492
夫妇	-11.0495
结算	-11.0496
缓慢	-11.0496
结晶	-11.05
卵形	-11.0501
装固定电话或拥有移动电话的农户数	-11.0504
额外	-11.0507
可持续发展	-11.051
蹲	-11.0511
亲人	-11.0511
况	-11.0512
狮子	-11.0513
找出	-11.0514
7.5	-11.0514
▁and	-11.0515
没事	-11.0515
春季	-11.0522
体积	-11.0522
携	-11.0523
和管理	-11.0524
打车	-11.0524
残疾人	-11.0524
路段	-11.0525
区政府	-11.0527
你看	-11.0528
着力	-11.0529
永久	-11.0533
年内出栏肉猪	-11.0534
法官	-11.0535
有望	-11.0536
答应	-11.0539
卡通	-11.0541
per	-11.0542
成品	-11.0542
1972	-11.0544
为准	-11.0548
议会	-11.0548
钓鱼	-11.0548
牌子	-11.055
为例	-11.055
分辨率	-11.055
十七	-11.055
-0	-11.0551
6.5	-11.0552
介质	-11.0552
距离最近的车站	-11.0553
自称	-11.0555
前提	-11.0556
变革	-11.0556
宋代	-11.0557
重组	-11.0559
到处	-11.0562
大学学历	-11.0563
通过对	-11.0563
此类	-11.0563
党组书记	-11.0564
为止	-11.0565
唐代	-11.0566
饲养	-11.0571
探险	-11.0572
ong	-11.0574
的形象	-11.0574
是非常	-11.0575
抗战	-11.0578
有一次	-11.0579
工作中	-11.058
扬州	-11.058
煲	-11.0582
制作的	-11.0582
贝尔	-11.0582
之战	-11.0586
创建于	-11.0587
我一直	-11.0588
火灾	-11.0589
披针形	-11.0589
议员	-11.0589
锌	-11.0591
大厅	-11.0592
凸	-11.0594
三个月	-11.0595
婴	-11.0595
90%	-11.0597
来自于	-11.0597
特效	-11.0598
第一部	-11.0601
能让	-11.0602
去皮	-11.0604
删	-11.0605
提供的	-11.0605
都不会	-11.0605
其中从事第一产业人数	-11.0609
隔离	-11.0609
轮胎	-11.061
AN	-11.0611
奖金	-11.0611
不需付费	-11.0612
这是我	-11.0614
遵守	-11.0614
逃离	-11.0616
博览会	-11.0616
1966	-11.0624
日出生于	-11.0624
小小的	-11.0624
分泌	-11.0625
ho	-11.0625
灶	-11.0625
和技术	-11.0628
跨越	-11.0628
蜂蜜	-11.0629
入住	-11.0629
比喻	-11.0629
独立的	-11.0629
先后在	-11.063
畜	-11.0631
捉	-11.0633
地板	-11.0634
再生	-11.0634
小吃	-11.0636
哪怕	-11.0637
移植	-11.0637
环球	-11.0637
的做法	-11.0637
调料	-11.0639
1969	-11.0639
肋	-11.064
奎	-11.0642
的大型	-11.0643
该怎么	-11.0643
二战	-11.0645
努	-11.0646
170	-11.0647
原因是	-11.0651
厂房	-11.0652
诏	-11.0652
命名为	-11.0658
后勤	-11.066
这不是	-11.0662
圈子	-11.0662
四周	-11.0662
烤烟	-11.0663
ard	-11.0664
▁in	-11.0666
砌	-11.0666
闺蜜	-11.0668
的品牌	-11.0671
却被	-11.0673
并与	-11.0673
管理系统	-11.0675
流浪	-11.0676
专属	-11.068
拾	-11.068
的传统	-11.068
sp	-11.0682
而且还	-11.0682
有序	-11.0682
联络	-11.0684
我来	-11.0684
流水	-11.0685
过后	-11.0685
坐标	-11.0685
甸	-11.0687
面部	-11.0689
是日本	-11.0692
直线	-11.0692
新产品	-11.0693
疗效	-11.0694
坚决	-11.0696
个股	-11.0697
阴阳	-11.0697
励志	-11.0699
监狱	-11.0702
文科	-11.0705
一个是	-11.0707
展示了	-11.0709
伟大的	-11.0712
悠	-11.0712
可以说是	-11.0712
场比赛	-11.0715
密集	-11.0715
1.7	-11.0716
い	-11.0717
人类的	-11.0718
ti	-11.0721
-11	-11.0721
2.4	-11.0723
民俗	-11.0726
立场	-11.0727
计划生育	-11.0727
能力和	-11.0729
早在	-11.0731
事迹	-11.0731
笨	-11.0732
火山	-11.0732
花费	-11.0733
目的是	-11.0733
▁c	-11.0736
我真的	-11.0737
宽带	-11.0738
轻易	-11.0742
用作	-11.0742
种族	-11.0743
酒店的房型有多种选择	-11.0743
因子	-11.0746
确	-11.0747
控制系统	-11.075
有林地	-11.075
伙	-11.0752
扶持	-11.0753
的使用	-11.0754
绩效	-11.0754
转发	-11.0754
集团有限公司	-11.0755
窃	-11.0755
力争	-11.0757
教育教学	-11.076
省市	-11.0761
优秀教师	-11.0761
孔子	-11.0761
市长	-11.0762
巧克力	-11.0763
还可	-11.0763
ry	-11.0763
恐	-11.0764
▁张	-11.0765
顺便	-11.0766
夺得	-11.0766
微生物	-11.0766
直立	-11.0767
的宗旨	-11.0768
析	-11.0768
的味道	-11.0769
去除	-11.0769
喝酒	-11.0769
救助	-11.077
询问	-11.077
2.1	-11.077
留学生	-11.0771
我们将	-11.0771
半岛	-11.0775
座椅	-11.0776
芒	-11.0777
煤矿	-11.0781
螺旋	-11.0783
金奖	-11.0784
一小	-11.0786
教职工	-11.0787
详	-11.0789
跳跃	-11.0789
山脉	-11.079
可怕	-11.079
跟他	-11.0795
摄影师	-11.0796
口语	-11.0796
龙头	-11.0798
科学研究	-11.0798
只需要	-11.08
着重	-11.0801
▁然后	-11.0801
罢	-11.0802
工会	-11.0802
工资性收入	-11.0802
简历	-11.0803
变更	-11.0804
不清楚	-11.0805
介入	-11.0806
向下	-11.0808
怎么看	-11.0809
遇上	-11.0811
扭	-11.0812
说到	-11.0813
相爱	-11.0813
录制	-11.0814
用法	-11.0815
班级	-11.0815
番茄	-11.0817
风格的	-11.0818
吃的	-11.0819
音响	-11.082
同人	-11.0821
大自然	-11.0825
类似的	-11.0827
三百	-11.0828
建筑材料	-11.0829
宝马	-11.083
有效地	-11.0835
某某	-11.0836
空白	-11.0838
我校	-11.0838
MB	-11.0839
首个	-11.0841
很小	-11.0842
品位	-11.0843
媒	-11.0845
奔驰	-11.085
棕色	-11.085
醒来	-11.0852
性价比	-11.0852
促销	-11.0854
纤	-11.0856
★	-11.0857
的经济	-11.086
为自己	-11.0861
抛弃	-11.0862
无穷	-11.0864
出轨	-11.0864
一堆	-11.0865
网民	-11.0866
揽	-11.0867
匠	-11.0869
三角形	-11.0872
要做	-11.0872
手里	-11.0873
真题	-11.0873
朋友们	-11.0873
爸妈	-11.088
看法	-11.0881
古城	-11.0882
刃	-11.0882
江山	-11.0883
这份	-11.0883
得很	-11.0883
下辖	-11.0884
庸	-11.0885
一夜	-11.0887
所有人	-11.0887
摩擦	-11.0888
一看	-11.0888
町	-11.0888
来到了	-11.0893
焦虑	-11.0893
AS	-11.0894
邮政	-11.0895
背叛	-11.0895
匿名	-11.0896
信息咨询	-11.0897
1973	-11.0898
相传	-11.0902
精度	-11.0902
MS	-11.0905
上传	-11.0906
预约	-11.0909
痰	-11.0909
优点	-11.091
2:	-11.091
栖	-11.0913
解决问题	-11.0914
你在	-11.0916
阐述了	-11.0917
客厅	-11.0917
po	-11.092
悔	-11.092
早就	-11.092
石化	-11.0924
舒服	-11.0927
公社	-11.093
其他人	-11.0935
段子	-11.0937
活动中	-11.0938
ore	-11.0938
忆	-11.0939
传统文化	-11.094
出任	-11.0943
伤心	-11.0943
恐龙	-11.0944
正常的	-11.0944
北美	-11.0946
锅内	-11.0947
是怎样	-11.0948
;《	-11.095
损坏	-11.0952
法庭	-11.0952
销售等	-11.0953
种植业收入	-11.0956
说什么	-11.0958
da	-11.0962
数控	-11.0963
批判	-11.0963
标准的	-11.0964
毁灭	-11.0964
市中心	-11.0965
1955	-11.0966
前辈	-11.0966
征收	-11.0967
全面的	-11.0973
耳朵	-11.0973
回头	-11.0974
的意见	-11.0975
治安	-11.0975
理想的	-11.0979
我个人	-11.098
解放军	-11.0982
1974	-11.0983
选拔	-11.0984
中华民族	-11.0985
为企业	-11.0988
意志	-11.0989
笛	-11.0989
规范化	-11.099
把他	-11.0991
送给	-11.0992
同类	-11.0995
服务业	-11.0996
珍珠	-11.0999
同时还	-11.0999
的投资	-11.1002
ne	-11.1002
ai	-11.1002
特种	-11.1006
愤怒	-11.1006
so	-11.1008
大二	-11.1009
外国人	-11.1009
澄	-11.101
的国家	-11.1013
主任医师	-11.1014
欧盟	-11.1015
天涯	-11.1015
切片	-11.1016
其中拥有移动电话农户数	-11.1016
与此同时	-11.1016
明年	-11.1018
裂片	-11.1019
振动	-11.102
学到	-11.1024
用手	-11.1025
电台	-11.1026
均衡	-11.1028
渊	-11.1029
作物	-11.1031
下部	-11.1031
概率	-11.1032
是他	-11.1032
专业技术	-11.1033
星座	-11.1036
外出	-11.1037
我对	-11.1037
肢	-11.1037
论证	-11.1038
列表	-11.104
办公室主任	-11.1045
遣	-11.1045
缺少	-11.1045
签署	-11.1045
的颜色	-11.1046
ab	-11.1048
大方	-11.1049
1957	-11.1054
对不起	-11.1059
科技大学	-11.1063
ER	-11.1063
ig	-11.1063
台风	-11.1063
感悟	-11.1064
数值	-11.1065
服务于	-11.1066
编排	-11.1066
睿	-11.1066
全村辖	-11.1067
你自己	-11.1068
小于	-11.1069
城堡	-11.1071
霉	-11.1071
双重	-11.1076
日本人	-11.1077
护肤	-11.1079
有的人	-11.1079
信赖	-11.108
底层	-11.1081
为什么不	-11.1081
波兰	-11.1082
耕地面积	-11.1084
排行榜	-11.1087
主观	-11.1088
有多少	-11.1092
难点	-11.1093
沙漠	-11.1094
指点	-11.1095
拥有林地	-11.1095
国家的	-11.1096
MV	-11.1097
理论与	-11.1097
本质	-11.1098
距离最近的集贸市场	-11.1098
厕所	-11.1099
长征	-11.11
小小	-11.1101
做人	-11.1102
想去	-11.1102
的环境	-11.1102
锅炉	-11.1102
债务	-11.1103
est	-11.1103
收取	-11.1109
骄傲	-11.1109
主要种植	-11.111
要有	-11.111
博客	-11.1111
组织实施	-11.1112
高等院校	-11.1112
▁m	-11.1114
筛	-11.1116
暑	-11.1118
给我们	-11.1118
辨	-11.1118
一手	-11.1119
开口	-11.112
驰	-11.1121
本周	-11.1121
成都市	-11.1121
▁王	-11.1122
丰田	-11.1124
得分	-11.1124
潜在	-11.1124
富含	-11.1125
肤	-11.1128
提出的	-11.1129
主打	-11.1129
花椒	-11.1129
无敌	-11.1129
仗	-11.1129
句子	-11.113
莲花	-11.1136
山地	-11.1136
年平均气温	-11.1136
向往	-11.1136
鲍	-11.1138
的努力	-11.1139
的可能性	-11.1139
安全性	-11.1142
这就	-11.1143
化石	-11.1144
汽油	-11.1145
勋	-11.1146
朝阳	-11.1148
成熟的	-11.1152
跟你	-11.1154
过去的	-11.1154
联想	-11.1155
也都	-11.1155
大盘	-11.1155
贴近	-11.116
释义	-11.116
分校	-11.1161
人们的	-11.1163
统筹	-11.1164
衬	-11.1167
将成为	-11.117
不适	-11.117
奇幻	-11.1173
青岛市	-11.1174
当作	-11.1176
欺负	-11.1176
的经营理念	-11.1177
付款	-11.1178
帅气	-11.1178
曾获	-11.118
考点	-11.1184
交给	-11.119
抢救	-11.1191
务实	-11.1192
会自动计算	-11.1193
io	-11.1193
必须要	-11.1194
同比	-11.1195
阵容	-11.1198
神奇的	-11.1199
忽	-11.12
用户的	-11.12
的风格	-11.1201
手游	-11.1202
常年	-11.1203
大事	-11.1203
只好	-11.1207
筛选	-11.1207
政权	-11.1211
在总价中	-11.1214
需在入住	-11.1214
时另行支付	-11.1215
附加费用不	-11.1215
买的	-11.1217
忽视	-11.1218
ub	-11.122
进取	-11.1223
宪法	-11.1223
班主任	-11.1223
与管理	-11.1226
后再	-11.1227
膝	-11.1227
的任务	-11.1228
楼上	-11.1229
绵	-11.1231
con	-11.1231
农户	-11.1232
的那	-11.1233
诱惑	-11.1234
温和	-11.1241
同样的	-11.1244
的一家	-11.1245
ion	-11.1246
常委	-11.1248
要去	-11.1248
产业链	-11.1248
三天	-11.1248
所提出的任何	-11.125
感觉到	-11.1251
人性	-11.1252
的感受	-11.1253
艇	-11.1256
法则	-11.1257
或婴儿床的要求均需获得酒店的确认	-11.1257
Me	-11.1257
允	-11.1257
斯坦	-11.1258
的一款	-11.1259
推出了	-11.1259
逝	-11.1259
诈骗	-11.1261
死后	-11.1261
观音	-11.1262
多久	-11.1262
化合物	-11.1263
看待	-11.1263
变动	-11.1263
沫	-11.1264
关爱	-11.1264
健全	-11.1264
挂牌	-11.1266
同一个	-11.1267
又能	-11.1268
制药	-11.127
备受	-11.127
年内	-11.1271
的最	-11.1271
逝世	-11.1272
才发现	-11.1272
〉	-11.1275
附录	-11.128
张额外的床	-11.1281
的比赛	-11.1281
忽然	-11.1283
社会各界	-11.1285
困惑	-11.1285
不应该	-11.1287
没办法	-11.1288
一波	-11.1288
这个人	-11.129
骏	-11.129
杂交	-11.1292
胡椒粉	-11.1294
出品	-11.1296
出处	-11.1297
总额	-11.1297
绝大多数	-11.1298
车道	-11.1301
名叫	-11.1301
腻	-11.1303
游戏的	-11.1304
其中包括	-11.1305
雌	-11.1305
上周	-11.1305
健康的	-11.1306
面料	-11.1307
万里	-11.1308
中国人民解放军	-11.1309
市公安局	-11.1311
欲望	-11.1311
典雅	-11.1315
有何	-11.1315
1.1	-11.1315
代价	-11.1315
开花	-11.1316
也可作为	-11.1318
法治	-11.1319
类别	-11.1319
三分	-11.1321
百货	-11.1325
占有	-11.1325
▁但是	-11.1326
康熙	-11.1327
整齐	-11.1329
饰品	-11.1331
周五	-11.1334
夜间	-11.1334
幅度	-11.1336
信息系统	-11.1337
的记忆	-11.1337
截图	-11.1337
人称	-11.1338
好朋友	-11.134
具体的	-11.1342
胸部	-11.1343
荫	-11.1344
进球	-11.1345
最后的	-11.1346
的建议	-11.1346
纪委	-11.1349
1959	-11.1349
新西兰	-11.135
违规	-11.135
氟	-11.135
开创	-11.1351
(4)	-11.1351
朋	-11.1352
一阵	-11.1352
等多个	-11.1353
征服	-11.1354
细致	-11.1354
厌	-11.1356
纪律	-11.1356
比如说	-11.1356
情商	-11.1358
像是	-11.1361
oo	-11.1367
卡尔	-11.1369
标识	-11.1369
主管部门	-11.137
优质的	-11.1371
区的	-11.1371
固体	-11.1371
阿根廷	-11.1371
外贸	-11.1373
人才培养	-11.1374
其中人均耕地	-11.1376
我喜欢	-11.1376
上门	-11.1376
出色的	-11.1377
渴	-11.1379
你还	-11.1383
吸引了	-11.1383
即时	-11.1384
中国经济	-11.1385
俗称	-11.1387
全年	-11.139
兔子	-11.1392
誉	-11.1394
眠	-11.1395
扎实	-11.1395
退役	-11.1395
春节	-11.1396
米的	-11.1396
近几年	-11.1399
就已经	-11.14
实用的	-11.1403
地形	-11.1406
发言	-11.1406
淫	-11.1406
执着	-11.1408
985	-11.1409
泻	-11.141
经历过	-11.141
时间为	-11.1411
人生的	-11.1413
为什么会	-11.1413
恶意	-11.1414
^	-11.1414
μ	-11.1414
金刚	-11.1416
贩	-11.1416
起草	-11.1418
应用于	-11.1421
彬	-11.1423
可以看到	-11.1425
关怀	-11.1426
为目标	-11.1427
至上	-11.1427
智能手机	-11.1428
表白	-11.1432
得多	-11.1433
位于上海市	-11.1433
王爷	-11.1434
自有	-11.1434
蓉	-11.1435
研究会	-11.1436
亲情	-11.1437
严格的	-11.1437
华北	-11.1438
211	-11.144
下行	-11.144
梦幻	-11.144
光电	-11.1441
(10	-11.1441
成为一个	-11.1442
附有	-11.1444
我没有	-11.1445
回合	-11.1447
处处	-11.1447
登上	-11.145
之心	-11.1451
其他的	-11.1451
看好	-11.1451
通俗易懂	-11.1453
花瓣	-11.1454
六十	-11.1454
珊	-11.1455
前方	-11.1456
一体	-11.1457
树脂	-11.1459
这家	-11.1462
发展战略	-11.1462
os	-11.1466
万亩	-11.1467
常用的	-11.1467
下滑	-11.1468
如果没有	-11.1469
户口	-11.1471
阻力	-11.1471
珠海	-11.1472
先进集体	-11.1472
谨慎	-11.1472
SI	-11.1475
一杯	-11.1475
我去	-11.1477
非常好	-11.1477
建国	-11.148
昔	-11.148
长久	-11.1482
场面	-11.1483
(1	-11.1487
词典	-11.1488
静脉	-11.149
大三	-11.1496
抖	-11.1496
主要包括	-11.1497
he	-11.1497
邻居	-11.1498
古人	-11.1499
---------------	-11.15
年由	-11.15
瑜伽	-11.1501
App	-11.1502
概	-11.1503
AP	-11.1505
AD	-11.1505
党支部	-11.1507
机体	-11.1507
社会学	-11.1507
所说的	-11.1508
电网	-11.1508
大批	-11.1509
嫁给	-11.1509
一副	-11.1509
农药	-11.151
戳	-11.1511
户居住于土木结构住房	-11.1511
前端	-11.1513
妇科	-11.1514
前者	-11.1515
婉	-11.1517
路边	-11.1519
抱怨	-11.1519
〕	-11.152
精细	-11.152
受益	-11.1525
安慰	-11.1525
要想	-11.1528
分局	-11.1531
我有	-11.1532
大臣	-11.1535
剥	-11.1535
多为	-11.1536
阀门	-11.1537
痒	-11.1538
邹	-11.1539
切割	-11.154
蚕	-11.1541
一切都	-11.1542
整形	-11.1544
收缩	-11.1546
咯	-11.1546
首家	-11.1546
术语	-11.1547
除非	-11.1547
季度	-11.1549
的综合	-11.1551
1)	-11.1551
找个	-11.1552
海鲜	-11.1553
220	-11.1554
听过	-11.1555
老子	-11.1555
交通运输	-11.1556
1952	-11.1557
之称	-11.1559
1961	-11.1562
两个月	-11.1566
必备	-11.1567
剖析	-11.1569
增大	-11.157
极大的	-11.1572
丈	-11.1572
一次性	-11.1573
音频	-11.1573
搅	-11.1574
门槛	-11.158
身心	-11.1583
淑	-11.1583
老百姓	-11.1585
光绪	-11.1585
连载的	-11.1585
▁本书	-11.1587
修正	-11.1593
大概是	-11.1594
不妨	-11.1597
br	-11.1598
就没	-11.1598
还有一个	-11.1601
的例子	-11.1603
你不	-11.1604
南瓜	-11.1604
他们在	-11.1605
中最	-11.1608
age	-11.1608
MO	-11.1609
不过是	-11.1609
焉	-11.161
配送	-11.1612
根本不	-11.1621
鲁迅	-11.1622
沙发	-11.1622
因其	-11.1623
设备的	-11.1623
公关	-11.1623
帝王	-11.1625
领取	-11.1631
伟大	-11.1631
遭受	-11.1631
CP	-11.1633
元件	-11.1634
火爆	-11.1636
2.00	-11.1636
188	-11.1642
这样一个	-11.1648
冀	-11.1648
终极	-11.1649
高山	-11.1649
生态环境	-11.1649
牛逼	-11.165
彰显	-11.1654
邮票	-11.1655
谈恋爱	-11.1655
剩余	-11.1657
操控	-11.1658
大叔	-11.1659
CT	-11.166
热闹	-11.166
主要用于	-11.166
蓄	-11.1662
展出	-11.1662
移动互联网	-11.1663
机身	-11.1663
雷达	-11.1664
运气	-11.1664
改革开放	-11.1665
▁f	-11.1667
之类	-11.1668
豆瓣	-11.1668
恋人	-11.1668
有利	-11.167
列入	-11.1672
撤销	-11.1673
服务平台	-11.1673
电动车	-11.1673
捡	-11.1676
扰	-11.1678
依次	-11.1682
眼泪	-11.1683
目前已	-11.1685
达人	-11.1685
下班	-11.1689
发热	-11.1689
编码	-11.1689
爱人	-11.1694
公司拥有	-11.1694
栗	-11.1695
廖	-11.1695
所著	-11.1696
ba	-11.1698
低调	-11.1698
滞	-11.1701
学报	-11.1702
年农村经济总收入	-11.1703
tion	-11.1704
屡	-11.1705
打了	-11.171
阶级	-11.1711
淋浴设施	-11.1713
黄瓜	-11.1713
通讯员	-11.1714
酒精	-11.1718
谜	-11.1718
等到	-11.1719
沉淀	-11.1719
调试	-11.1719
调味	-11.1721
在其	-11.1722
长期从事	-11.1723
过渡	-11.1724
SS	-11.1724
愤	-11.1724
欧阳	-11.1725
在外	-11.1729
法师	-11.1735
题型	-11.1736
甜蜜	-11.1736
假期	-11.1736
厄	-11.1738
我们在	-11.1739
全是	-11.174
准备好	-11.174
草地	-11.1742
5-	-11.1742
尧	-11.1744
球形	-11.1752
整天	-11.1753
1971	-11.1754
加入了	-11.1755
边界	-11.1756
金融机构	-11.1758
慎	-11.1758
二十年	-11.1763
亲密	-11.1765
政务	-11.1765
审定	-11.1768
咱们	-11.1768
硕士研究生	-11.1769
乌克兰	-11.1769
动脉	-11.1769
鞭	-11.177
野生	-11.177
感应	-11.1772
189	-11.1773
刚好	-11.1774
三千	-11.1774
发展规划	-11.1775
商会	-11.1775
高贵	-11.1775
会导致	-11.1775
咋	-11.1776
他对	-11.1778
前世	-11.1779
进度	-11.1779
世家	-11.1779
象征	-11.178
艘	-11.1783
张加床	-11.1783
泳	-11.1785
就知道	-11.1788
培训班	-11.1788
绝不	-11.1788
这点	-11.1789
仿真	-11.1794
有不少	-11.1794
虞	-11.1796
食品安全	-11.18
庵	-11.1801
▁5	-11.1803
夜晚	-11.1803
理科	-11.1804
一双	-11.1809
坐落在	-11.1809
是法国	-11.181
▁怎样	-11.1812
庚	-11.1814
国土面积	-11.1816
之前的	-11.1816
淳	-11.1816
家用	-11.1817
ha	-11.1817
再现	-11.182
君子	-11.1821
装扮	-11.1821
起步	-11.1821
旨	-11.1822
10000	-11.1825
这套	-11.1829
类似于	-11.1832
职业足球运动员	-11.1832
咒	-11.1832
月在	-11.1833
武林	-11.1834
拉斯	-11.1835
酮	-11.1837
诱	-11.1849
副主任医师	-11.1849
总公司	-11.185
PE	-11.1854
西路	-11.1855
▁V	-11.1856
〈	-11.1859
公安机关	-11.1859
老虎	-11.1859
最强	-11.186
侧面	-11.1861
越来越多的	-11.1861
的衣服	-11.1862
不断地	-11.1864
城县	-11.1864
环境中	-11.1865
选取	-11.1869
定价	-11.1872
.12	-11.1875
The	-11.1875
重重	-11.1876
像素	-11.1877
解除	-11.1877
你觉得	-11.1879
肯定是	-11.1879
1953	-11.188
-6	-11.1881
的少年	-11.1881
先锋	-11.1883
关注的	-11.1886
匪	-11.1886
柠檬	-11.1888
是真的	-11.189
ver	-11.189
光线	-11.189
就把	-11.1893
高低	-11.1895
一共	-11.1895
的家庭	-11.1897
东莞市	-11.1898
主要作品	-11.19
头痛	-11.19
柏林	-11.1902
第三届	-11.1902
的主题	-11.1902
平凡的	-11.1902
鼻子	-11.1902
的通知	-11.1903
不信	-11.1904
歇	-11.1906
勤奋	-11.1906
内容丰富	-11.1908
深处	-11.191
涩	-11.1911
供给	-11.1913
病情	-11.1913
华南	-11.1916
料理	-11.1917
图文	-11.1918
笔记本	-11.1921
慌	-11.1922
der	-11.1922
订阅	-11.1924
CC	-11.1928
相关部门	-11.1928
取决于	-11.193
还不错	-11.1932
蒸汽	-11.1932
CE	-11.1936
于一体	-11.1938
晚报	-11.194
总量	-11.194
相亲	-11.1941
其实我	-11.1941
冷漠	-11.1942
从来不	-11.1942
文集	-11.1943
公布的	-11.1944
中国科学院	-11.1944
为大家	-11.1949
在学校	-11.195
本标准	-11.1953
而非	-11.1954
对着	-11.1956
幸福的	-11.1958
CEO	-11.1958
的那个	-11.196
2.8	-11.196
树木	-11.1962
硬化	-11.1965
葵	-11.1965
大城市	-11.1965
感恩	-11.1967
参展	-11.1968
新华社	-11.1971
果然	-11.1971
生肖	-11.1975
发音	-11.1975
疮	-11.1976
打败	-11.1977
互联网金融	-11.1977
队的	-11.1978
;3.	-11.1979
报价	-11.1985
喀	-11.1986
书桌	-11.1988
南宁	-11.1988
实业	-11.1988
总决赛	-11.1991
西亚	-11.1992
di	-11.1995
曝	-11.1996
镁	-11.1996
地段	-11.1997
就不会	-11.1999
是不	-11.2002
法定代表人陈	-11.2003
菜单	-11.2004
国人	-11.2008
一贯	-11.2008
与发展	-11.2008
梓	-11.2009
we	-11.2009
概括	-11.2011
我已经	-11.2012
专职	-11.2013
诊疗	-11.2014
通过了	-11.2015
晚会	-11.2016
动人	-11.2018
此事	-11.2021
的实际	-11.2021
几个月	-11.2022
仓库	-11.2022
詹姆斯	-11.2023
铸造	-11.2026
新媒体	-11.2027
欢迎所有年龄的儿童	-11.2027
告诉记者	-11.2028
指令	-11.203
高潮	-11.2032
晶体	-11.2033
素养	-11.2034
角落	-11.2034
暴雨	-11.2034
咱	-11.2035
眼中	-11.2035
时机	-11.2037
这对	-11.2041
宏观	-11.2042
1948	-11.2043
内有	-11.2044
研究工作	-11.2046
冲动	-11.2049
次会议	-11.2051
初恋	-11.2052
有限公司成立于	-11.2052
:‘	-11.2053
硫	-11.2056
所致	-11.2057
楼盘	-11.2058
佛山	-11.206
失踪	-11.2061
走上	-11.2061
人口密度	-11.2062
裁判	-11.2064
旅行社	-11.2064
玛丽	-11.2065
冷水	-11.2066
WiFi	-11.2068
禹	-11.207
陌	-11.2072
为客户	-11.2072
mi	-11.2073
有害	-11.2075
新世纪	-11.2075
异性	-11.2077
屁	-11.2078
人民医院	-11.2079
归来	-11.208
犹如	-11.2081
成效	-11.2082
裁	-11.2085
大海	-11.2086
荆	-11.2086
iOS	-11.2086
网点	-11.2087
2.3	-11.2087
菩萨	-11.2087
视为	-11.2088
源自	-11.2089
手表	-11.2092
1954	-11.2094
制作人	-11.2094
狗狗	-11.2094
开幕	-11.2095
在你	-11.2096
风暴	-11.2096
车祸	-11.2098
原有	-11.2098
品牌的	-11.2098
见解	-11.2099
是这样	-11.2099
年全村经济总收入	-11.21
考上	-11.21
DA	-11.2101
馀	-11.2102
莹	-11.2103
汀	-11.2104
模范	-11.2105
ant	-11.2105
公分	-11.2106
彻	-11.2109
岚	-11.2109
殇	-11.2109
图文并茂	-11.2113
一门	-11.2113
庆祝	-11.2116
道歉	-11.2118
益智	-11.2119
是一道	-11.2121
为宗旨	-11.2121
128	-11.2121
发票	-11.2122
干嘛	-11.2122
馅	-11.2125
华侨	-11.2126
东路	-11.2127
经营管理	-11.2127
为本	-11.2127
崩溃	-11.213
涅	-11.2131
▁J	-11.2133
SA	-11.2133
戏曲	-11.2135
信访	-11.2136
养殖业	-11.2138
儿科	-11.2139
凌晨	-11.2139
HD	-11.2141
的人都	-11.2142
屠	-11.2143
医疗器械	-11.2145
的成功	-11.2145
还好	-11.2147
短暂	-11.2147
这个时候	-11.2148
▁3.	-11.2152
不安	-11.2154
网球	-11.2155
质感	-11.2156
调控	-11.2158
穿过	-11.2158
你需要	-11.2165
还是要	-11.2165
一间	-11.2166
修理	-11.2167
亏损	-11.2171
于此	-11.2172
特有的	-11.2173
南路	-11.2173
夸张	-11.2173
巴士	-11.2174
一键	-11.2174
灾害	-11.2175
Win	-11.2175
完毕	-11.2176
发售	-11.2176
轧	-11.2181
我就是	-11.2182
同时也是	-11.2183
的高度	-11.2183
海内外	-11.2185
0%	-11.2187
出来了	-11.2187
min	-11.2188
羽毛球	-11.2189
背景下	-11.219
ca	-11.219
越多	-11.2193
市市场监督管理局登记成立	-11.2196
的认识	-11.2196
1930	-11.2198
中国人民大学	-11.2199
西瓜	-11.22
破碎	-11.22
高新技术企业	-11.2202
VS	-11.2204
艺术品	-11.2205
捣	-11.2207
同期	-11.2207
2019	-11.221
em	-11.221
麟	-11.2211
▲	-11.2211
从来没有	-11.2213
行程	-11.2214
陌生	-11.2214
不停	-11.2216
ow	-11.2217
米兰	-11.2218
耕地	-11.2218
拦	-11.222
约会	-11.2222
终点	-11.2222
屎	-11.2223
hu	-11.2228
内饰	-11.2229
】:	-11.223
中专	-11.2234
;5、	-11.2235
企事业单位	-11.2236
主营	-11.2236
ers	-11.2238
场上	-11.2239
不断提高	-11.224
物料	-11.224
另一种	-11.2241
却在	-11.2242
黔	-11.2242
总有	-11.2246
哟	-11.2247
色泽	-11.2249
肃	-11.2252
加班	-11.2253
人次	-11.2255
平稳	-11.2256
对称	-11.2257
航班	-11.2263
德语	-11.2264
门窗	-11.2264
面膜	-11.2265
捐	-11.2265
中东	-11.2265
反思	-11.2266
的压力	-11.2266
的责任	-11.2267
索尼	-11.2267
悉	-11.2267
老鼠	-11.227
In	-11.2274
排出	-11.2274
原来的	-11.2275
不利	-11.2277
房地产开发	-11.2278
轨迹	-11.2278
帮我	-11.2279
当成	-11.2279
子弹	-11.2282
----	-11.2283
中期	-11.2284
的人物	-11.2286
震惊	-11.2287
招标	-11.2287
科技创新	-11.2287
其后	-11.2288
半小时	-11.229
升高	-11.229
在省内务工	-11.2291
沧	-11.2292
从业人员	-11.2296
各部门	-11.2297
真爱	-11.2297
能力的	-11.2298
卸	-11.23
天真	-11.2302
头脑	-11.2302
说他	-11.2304
紧凑	-11.2304
1.00	-11.2304
雅思	-11.2306
检索	-11.2308
钓	-11.2309
2500	-11.2309
帅哥	-11.231
一站式	-11.2312
餐馆	-11.2315
就是一个	-11.2315
翰	-11.2316
委会	-11.2318
第十	-11.232
海报	-11.2322
Co	-11.2322
摇滚	-11.2322
没法	-11.2324
连载的小说	-11.2325
助手	-11.2328
疗	-11.2328
担当	-11.2329
自治	-11.233
络	-11.2331
颁发的	-11.2331
甄	-11.2332
不成	-11.2336
扩散	-11.2339
变为	-11.2341
合资	-11.2343
这时候	-11.2344
旱	-11.2344
大专	-11.2346
文书	-11.2347
通行	-11.2352
formula	-11.2352
省部级	-11.2353
说道	-11.2353
的道路	-11.2354
40%	-11.2354
毫	-11.2356
牡丹	-11.2358
大片	-11.2358
核算	-11.236
褐	-11.236
了大量	-11.2365
是一	-11.2366
水质	-11.2367
百合	-11.2367
笋	-11.2369
省的一个市镇	-11.237
归纳	-11.2371
农业大学	-11.2372
名牌	-11.2373
阿拉伯	-11.2374
只要你	-11.2379
罗斯	-11.2379
十足	-11.238
万字	-11.238
驴	-11.2381
兼容	-11.2383
灾难	-11.2383
淘汰	-11.2383
会让	-11.2383
特点是	-11.2384
Mo	-11.2384
会觉得	-11.2387
分析师	-11.2388
体检	-11.239
在她	-11.2394
洗澡	-11.2394
建设项目	-11.2396
军团	-11.2396
不适合	-11.2397
溶解	-11.2399
的建设	-11.2401
文档	-11.2408
心得	-11.241
所得	-11.2412
妄	-11.2412
现货	-11.2414
督	-11.2414
我没	-11.2416
等各种	-11.242
1946	-11.2422
海水	-11.2422
的职业	-11.2424
人人	-11.2425
◆	-11.2425
早年	-11.2428
苔	-11.2428
几十年	-11.2428
并有	-11.2428
见证	-11.243
这一切	-11.2431
天文	-11.2433
pa	-11.2434
开阔	-11.2434
多位	-11.2435
政法	-11.2437
试卷	-11.2437
日常生活	-11.2438
滋	-11.2438
PA	-11.2438
遗产	-11.244
强者	-11.2442
看不到	-11.2442
ag	-11.2443
要把	-11.2443
喜好	-11.2443
鲜明	-11.2445
尚书	-11.2445
高中生	-11.2445
庐	-11.2446
依照	-11.2447
糕	-11.2447
1937	-11.2448
忽略	-11.2451
精彩的	-11.2451
沁	-11.2452
贴吧	-11.2452
奇怪	-11.2452
叙	-11.2454
易于	-11.2454
缩短	-11.2455
骨干教师	-11.2456
最小	-11.2458
不等	-11.2458
会对	-11.2461
国学	-11.2466
我只是	-11.2466
人大	-11.247
▁p	-11.2472
崎	-11.2474
帘	-11.2475
运动会	-11.2477
剩下的	-11.2477
用地	-11.2477
珍贵	-11.2478
杀害	-11.2479
颁发	-11.2481
吹风机	-11.2481
但由于	-11.2482
回落	-11.2482
短短	-11.2483
针对性	-11.2483
ack	-11.2484
70%	-11.2486
1938	-11.2487
开发商	-11.2487
SE	-11.2488
很多人都	-11.2488
一号	-11.2489
浊	-11.2489
谷歌	-11.249
可以选择	-11.2492
变换	-11.2497
增多	-11.2498
搓	-11.2498
的评价	-11.2499
祁	-11.25
助力	-11.25
168	-11.2502
一笔	-11.2503
初学者	-11.2504
发行的	-11.2504
法定代表人刘	-11.2507
站点	-11.2508
制冷	-11.251
不让	-11.2511
Pro	-11.2511
赠送	-11.2511
外包	-11.2512
罢了	-11.2512
阮	-11.2512
约束	-11.2513
不已	-11.2513
幢	-11.2515
墩	-11.2515
十万	-11.2516
奖学金	-11.2517
浏览器	-11.2518
羊肉	-11.2519
葫芦	-11.2519
的灵魂	-11.2521
〔	-11.2521
熟悉的	-11.2522
HR	-11.2522
书院	-11.2522
使人	-11.2524
大哥	-11.2524
电工	-11.2527
DVD	-11.253
圆满	-11.2531
男主	-11.2534
ian	-11.2535
名著	-11.2537
承载	-11.2538
维尔	-11.2539
▁b	-11.254
充足	-11.2542
较少	-11.2543
一行	-11.2543
的政治	-11.2544
里有	-11.2544
SO	-11.2544
职业生涯	-11.255
的比例	-11.2553
信息服务	-11.2554
更容易	-11.2555
进入了	-11.2556
仅仅是	-11.2556
可用于	-11.2559
研究人员	-11.2561
全家	-11.2564
荣耀	-11.2565
的整体	-11.2567
工程设计	-11.257
锈	-11.257
运营商	-11.2571
科研项目	-11.2571
名誉	-11.2571
附加	-11.2574
详尽	-11.2575
授课	-11.2577
媳妇	-11.2578
为啥	-11.2578
就好了	-11.2579
唐朝	-11.2579
檐	-11.2579
代表作	-11.2581
关键词	-11.2581
生产基地	-11.2582
详情	-11.2582
ni	-11.2584
玩游戏	-11.2585
红包	-11.2586
的操作	-11.2586
职业教育	-11.2587
马路	-11.2587
周一	-11.2587
会所	-11.2588
配音	-11.2588
sa	-11.259
酒店还会提供一项住宿的免费政策	-11.2591
(15	-11.2594
惊艳	-11.2595
?<	-11.2596
写出	-11.2597
吵架	-11.2597
工程施工	-11.2598
高原	-11.2599
ment	-11.2601
冷静	-11.2602
十余	-11.2603
孵化	-11.2604
歌唱	-11.2604
赣	-11.2606
酒店还提供机场等接车服务	-11.2607
党组织	-11.2608
が	-11.2609
侦探	-11.2609
会长	-11.2611
矿山	-11.2611
说出	-11.2614
文体	-11.2614
偷偷	-11.2614
套路	-11.2614
并通过	-11.2615
竣工	-11.2615
梵	-11.2616
啸	-11.2617
时常	-11.2617
修真	-11.2617
保守	-11.2618
在香港	-11.262
党委委员	-11.2626
这座	-11.2626
的心态	-11.2627
编委	-11.2629
评委	-11.263
当选为	-11.2632
未经	-11.2632
魄	-11.2634
解说	-11.2634
聘	-11.2634
的动作	-11.2635
迎接	-11.2638
备考	-11.2639
特长	-11.264
斥	-11.264
藩	-11.264
老大	-11.2641
提倡	-11.2641
史料	-11.2642
书店	-11.2642
婷	-11.2642
说自己	-11.2643
一万	-11.2645
主要作品有	-11.2648
的重要性	-11.2648
樱花	-11.2648
是用	-11.2649
克拉	-11.2649
想过	-11.265
汇聚	-11.2651
较好的	-11.2651
有必要	-11.2653
处在	-11.2654
隋	-11.2654
变迁	-11.266
金银	-11.2662
合约	-11.2669
一件事	-11.267
尸体	-11.2672
主办的	-11.2672
挣扎	-11.2673
秋天	-11.2674
一脸	-11.2679
鉴于	-11.2679
投资管理	-11.268
商人	-11.2681
过去了	-11.2681
的权利	-11.2683
的管理	-11.2685
抵达	-11.2686
师范学院	-11.2689
ip	-11.2689
中央电视台	-11.269
第一届	-11.269
判决	-11.269
月亮	-11.2692
承接	-11.2694
节点	-11.2695
帽子	-11.2695
内衣	-11.2696
高效的	-11.2696
如题	-11.2697
已经被	-11.2698
CH	-11.2698
拟任	-11.2698
精通	-11.2699
治愈	-11.27
请大家	-11.2701
解题	-11.2701
新娘	-11.2702
三观	-11.2702
修养	-11.2703
强劲	-11.2706
颠覆	-11.2708
十月	-11.2709
▁6	-11.2712
研讨会	-11.2715
有限公司是	-11.2716
筹备	-11.2717
徐州	-11.2721
先端	-11.2722
就读于	-11.2722
魅	-11.2723
病变	-11.2725
之力	-11.2726
弥补	-11.2726
运转	-11.2727
后台	-11.2729
投资咨询	-11.2731
只是一个	-11.2732
腊	-11.2739
致富	-11.2739
户居住砖木结构住房	-11.274
舒适的	-11.2741
科技成果	-11.2745
月中旬	-11.2746
亲切	-11.2747
的功效	-11.275
生姜	-11.275
再说	-11.2755
沐	-11.2755
出租车	-11.2755
计算机软硬件	-11.2755
等行业	-11.2755
口服	-11.2756
对策	-11.2757
物理学	-11.2759
很可能	-11.2763
倪	-11.2765
迎来	-11.2767
一丝	-11.2767
各式	-11.2769
村位于	-11.2769
法语	-11.277
的心情	-11.2771
找工作	-11.2772
精美的	-11.2773
相邻	-11.2774
下游	-11.2775
设计与	-11.2778
难过	-11.2779
横向	-11.2779
深刻的	-11.278
东海	-11.2781
必要的	-11.2782
产权	-11.2782
育人	-11.2784
是目前	-11.2787
披露	-11.2788
北路	-11.2788
的平台	-11.279
传达	-11.279
这首歌	-11.279
挨	-11.2791
选项	-11.2791
畏	-11.2792
合作关系	-11.2792
了自己	-11.2793
-7	-11.2796
・	-11.2797
促使	-11.28
中所	-11.2802
上看	-11.2803
胞	-11.2803
千米	-11.2803
炸弹	-11.2804
仲裁	-11.2805
液晶	-11.2807
复兴	-11.281
市场营销	-11.2811
技艺	-11.2813
宽松	-11.2816
博士后	-11.2816
二期	-11.2817
只想	-11.2818
大全	-11.2818
苞片	-11.2818
何时	-11.2818
婆婆	-11.2819
顶部	-11.2822
它们的	-11.2822
的理由	-11.2823
的特色	-11.2825
宽度	-11.2828
俞	-11.2829
实物	-11.283
还是很	-11.2831
窦	-11.2832
烤箱	-11.2833
绝缘	-11.2834
说实话	-11.2835
只有一个	-11.2836
村里	-11.2838
USB	-11.2839
学会理事	-11.2841
黄油	-11.2841
买到	-11.2841
言论	-11.2842
把你	-11.2843
佩戴	-11.2843
我看	-11.2844
年轻的	-11.2845
原材料	-11.2846
蘑菇	-11.2846
450	-11.285
监理	-11.285
但不	-11.2852
是连载于起点中文网的小说	-11.2852
的项目	-11.2853
的情感	-11.2854
ES	-11.2854
省委	-11.2857
剧中	-11.2857
鞋子	-11.2858
面貌	-11.2859
阴影	-11.286
除此之外	-11.286
后又	-11.2861
版的	-11.2861
注意事项	-11.2865
是位于	-11.2865
特征特性	-11.2868
岛屿	-11.287
养护	-11.2872
协商	-11.2875
已经有	-11.2876
的用户	-11.2878
剩	-11.2878
副秘书长	-11.2878
我们都	-11.2883
阶层	-11.2885
风景区	-11.2885
▁O	-11.2887
果期	-11.2887
媚	-11.2887
加息	-11.2888
各方	-11.2888
侦查	-11.289
安县	-11.289
双向	-11.2891
1947	-11.2892
未知	-11.2893
-15	-11.2895
生殖	-11.2895
厢	-11.2896
短线	-11.2896
谨	-11.2896
的男生	-11.2896
教训	-11.2897
有种	-11.2897
有多大	-11.2898
粗糙	-11.29
扒	-11.2902
国企	-11.2902
无效	-11.2902
糯米	-11.2903
做个	-11.2904
▁7	-11.2906
然后再	-11.2906
棉花	-11.2907
先进个人	-11.2908
内设	-11.291
法人	-11.2912
詹	-11.2913
爱我	-11.2913
举行的	-11.2913
奇怪的	-11.2915
会展	-11.2916
粒子	-11.2917
痘	-11.2918
西湖	-11.292
海底	-11.292
同名	-11.292
塑胶	-11.2922
美洲	-11.2925
相对于	-11.2929
蚀	-11.2931
纳税	-11.2932
辟	-11.2933
暂停	-11.2933
青山	-11.2935
儿童文学	-11.2935
恐怕	-11.2935
失业	-11.2937
共赢	-11.2939
电阻	-11.2941
有益	-11.2941
类的	-11.2941
封建	-11.2942
北京时间	-11.2947
合一	-11.2947
倒是	-11.2947
第一位	-11.2948
服务等	-11.2948
家伙	-11.295
所需的	-11.295
还需要	-11.2952
量的	-11.2952
CPU	-11.2955
自家	-11.2957
支援	-11.2959
聪	-11.2959
3.00	-11.2959
而被	-11.2961
演艺	-11.2962
了她	-11.2962
为之	-11.2963
变态	-11.2963
明清	-11.2963
和服务	-11.2965
咳嗽	-11.2965
保密	-11.2966
毒品	-11.2967
18.	-11.2968
焖	-11.2968
的未来	-11.2968
更快	-11.2973
320	-11.2974
な	-11.2974
辩论	-11.2978
就说	-11.2983
正如	-11.2984
往来	-11.2984
马尔	-11.2984
的喜爱	-11.2985
死去	-11.2986
忠诚	-11.2986
深深	-11.2986
在问答社区	-11.2986
奥地利	-11.2987
迭	-11.2988
贯彻落实	-11.2992
1951	-11.2992
澜	-11.2992
甫	-11.2993
综	-11.2993
体力	-11.2993
出锅	-11.2993
可分为	-11.2995
门户	-11.2998
供水	-11.2999
灿烂	-11.3
气势	-11.3003
灌木	-11.3003
下车	-11.3004
提起	-11.3004
充实	-11.3004
助攻	-11.3005
启蒙	-11.3006
2》	-11.3006
票房	-11.3008
强行	-11.3009
花序	-11.3013
的战略	-11.3015
吼	-11.3016
大学毕业	-11.3022
的重点	-11.3025
见于	-11.3029
肉羊	-11.3029
寡	-11.3029
情形	-11.3032
留下了	-11.3032
壹	-11.3032
沉积	-11.3033
劳务	-11.3034
不开	-11.3034
该项目	-11.3037
卫星频道	-11.3038
血压	-11.3038
载体	-11.3038
自卑	-11.3038
鸡肉	-11.3039
这些人	-11.304
千万不要	-11.3041
我相信	-11.3041
发光	-11.3042
车上	-11.3045
文物保护单位	-11.3045
学习和	-11.3045
迫	-11.3048
呈现出	-11.3048
今天的	-11.3049
八卦	-11.3049
实际情况	-11.305
调解	-11.3054
脱落	-11.3055
趁	-11.3055
帖子	-11.3055
奶油	-11.3057
105	-11.3059
要不要	-11.3059
比利时	-11.306
学费	-11.3062
暗示	-11.3063
好看的	-11.3064
男主角	-11.3066
发布了	-11.3067
植株	-11.3072
会产生	-11.3074
时装	-11.3075
栽	-11.3079
湿润	-11.3079
太过	-11.3081
已经是	-11.3081
循	-11.3083
教学楼	-11.3084
成语	-11.3086
持久	-11.3088
8.5	-11.3091
创业者	-11.3092
国际机场	-11.3095
陇	-11.3095
沉默	-11.3095
信贷	-11.3097
德育	-11.3098
看的	-11.3098
挣	-11.3099
昊	-11.3099
be	-11.3099
で	-11.3099
趋	-11.31
叛	-11.31
捞	-11.3101
倚	-11.3102
之意	-11.3103
将继续	-11.3104
大酒店	-11.3106
开花结实特性	-11.3107
▁2015	-11.3107
常州	-11.3108
娱乐圈	-11.311
0°	-11.3112
有问题	-11.3112
研究和	-11.3112
背部	-11.3112
誓	-11.3115
可靠性	-11.3116
间隔	-11.3116
馨	-11.312
新品	-11.312
包裹	-11.3122
变量	-11.3125
大多数人	-11.3126
分割	-11.3127
等功能	-11.3129
环境优美	-11.3129
公元前	-11.313
时间内	-11.3131
了他的	-11.3132
步入	-11.3132
应试	-11.3132
增值	-11.3134
屌丝	-11.3135
耍	-11.3135
率领	-11.3137
的话题	-11.3141
候选人	-11.3142
纯粹	-11.3143
问题是	-11.3146
平板	-11.3146
具体用途	-11.3147
广泛应用于	-11.3148
绍兴	-11.315
沥青	-11.3152
的眼睛	-11.3154
领导干部	-11.3155
百余	-11.3156
建设工程	-11.3157
如果不	-11.3157
氨基酸	-11.316
党委副书记	-11.3161
饮水	-11.3163
红旗	-11.3164
的健康	-11.3164
湿地	-11.3167
高新区	-11.3169
景色	-11.317
RO	-11.3171
哄	-11.3174
膨胀	-11.3178
比较多	-11.3178
更高的	-11.318
修行	-11.318
2.7	-11.3183
缅甸	-11.3185
水电	-11.3185
CM	-11.3186
无疑	-11.3187
BA	-11.3189
实践中	-11.3189
齿轮	-11.319
只不过	-11.319
は	-11.319
异地	-11.3191
属于自己的	-11.3192
光泽	-11.3193
香蕉	-11.3194
颅	-11.3194
寇	-11.3195
水上	-11.3196
240	-11.3199
铲	-11.3201
千金	-11.3202
音乐学院	-11.3202
主播	-11.3208
从来	-11.3208
这张	-11.321
最早的	-11.3211
做得	-11.3211
凭证	-11.3213
BS	-11.3214
保险公司	-11.3215
山坡	-11.3216
公司在	-11.3219
罚款	-11.3221
使之	-11.3221
三亚	-11.3222
子公司	-11.3224
的女性	-11.3224
简化	-11.3224
麻醉	-11.3225
熏	-11.3226
既是	-11.3227
熟练	-11.3228
上游	-11.3229
省内	-11.3229
BO	-11.3231
125	-11.3232
满意的	-11.3233
凝聚	-11.3234
置于	-11.3234
ass	-11.3235
分支	-11.3235
不好意思	-11.3236
下一个	-11.3238
机组	-11.3238
民营	-11.3238
HO	-11.3239
线的	-11.3239
我们可以	-11.324
导向	-11.324
不做	-11.3241
查找	-11.3242
灌溉	-11.3242
是一家集	-11.3244
偿	-11.3245
娟	-11.3246
城市的	-11.3246
low	-11.3246
▁陈	-11.3248
水域	-11.3251
让大家	-11.3251
境外	-11.3252
拆除	-11.3257
our	-11.3257
明亮	-11.3258
动手	-11.3259
正当	-11.3261
柔毛	-11.3261
经营范围	-11.3262
理论研究	-11.3262
彩票	-11.3262
数千	-11.3262
环绕	-11.3263
在哪	-11.3264
地块	-11.3264
行车	-11.3268
越大	-11.3269
St	-11.3269
1934	-11.3269
每人	-11.327
聚焦	-11.327
当我	-11.3274
百科	-11.3275
心中的	-11.3275
甚至是	-11.3277
DNA	-11.3278
的母亲	-11.3278
ME	-11.3279
我们要	-11.328
揭	-11.3281
大国	-11.3282
神器	-11.3282
逍遥	-11.3283
增速	-11.3284
现实中	-11.3285
投资人	-11.3285
很强	-11.3285
工程建设	-11.3286
抑郁症	-11.3289
之美	-11.3291
排骨	-11.3295
体制改革	-11.3299
相识	-11.33
过关	-11.3301
ft	-11.3302
复活	-11.3303
荣誉称号	-11.3303
南宋	-11.3306
葡萄牙	-11.331
陷阱	-11.3311
NT	-11.3312
4.0	-11.3314
自幼	-11.3316
事发	-11.3316
中国文化	-11.3317
热烈	-11.3319
晚期	-11.3319
ess	-11.3321
白酒	-11.3321
1967	-11.3321
十佳	-11.3321
用书	-11.3323
随即	-11.3323
商学院	-11.3324
朝廷	-11.3325
负荷	-11.3327
个教学班	-11.3327
霖	-11.3329
先说	-11.333
侵权	-11.3334
直达	-11.3334
学业	-11.3338
DS	-11.3338
FA	-11.3339
腐败	-11.3339
然后就	-11.334
皱	-11.3341
岛上	-11.3341
的乐趣	-11.3342
的风险	-11.3343
一会儿	-11.3343
记者从	-11.3344
年出版	-11.3345
礁	-11.3346
谁能	-11.3346
代表性	-11.3347
此处	-11.3347
荐	-11.3348
近百	-11.3349
酿	-11.3349
(5)	-11.335
诊治	-11.3352
有兴趣	-11.3352
ity	-11.3354
手上	-11.3355
处处长	-11.3355
108	-11.3355
伴随着	-11.3357
曲折	-11.3357
糟	-11.3357
住院	-11.3358
单纯的	-11.3358
?1.	-11.336
卫生间	-11.3363
失眠	-11.3365
即成	-11.3365
ok	-11.3367
鸡汤	-11.3369
科研成果	-11.337
专业人士	-11.3374
神仙	-11.3374
起码	-11.3376
剂量	-11.3377
大米	-11.3377
3-4	-11.3378
很高的	-11.3378
No	-11.3379
这样做	-11.3379
聘请	-11.338
规章	-11.338
可以直接	-11.3381
称呼	-11.3382
搜狐	-11.3383
歌舞	-11.3383
腌	-11.3384
评定	-11.3385
学会会员	-11.3385
と	-11.3386
武功	-11.3388
脑子	-11.3389
风采	-11.339
及配件	-11.339
轰	-11.339
余年	-11.3391
颁布	-11.3391
格斗	-11.3392
莫斯科	-11.3393
厦	-11.3395
室外	-11.3397
前锋	-11.3397
教导	-11.3398
乐团	-11.3399
的关注	-11.34
tr	-11.3404
指引	-11.3407
为他	-11.3407
???	-11.3407
引起了	-11.3408
也可供	-11.3408
河道	-11.3408
来看看	-11.341
腐蚀	-11.341
等一系列	-11.3411
去找	-11.3413
大豆	-11.3416
涵盖了	-11.3418
实在是	-11.342
丢失	-11.3422
不小心	-11.3422
但这	-11.3422
总数	-11.3424
可以让	-11.3425
驳	-11.3427
有限责任公司于	-11.3428
前途	-11.343
防火	-11.3431
流体	-11.3434
的最高	-11.3434
国庆	-11.3434
财政部	-11.3435
全景	-11.3436
村内	-11.3437
马克	-11.3441
一直以来	-11.3443
报复	-11.3444
恶劣	-11.3445
难受	-11.3448
白领	-11.3448
面板	-11.3448
敬业	-11.3449
衡量	-11.3449
火焰	-11.3451
上世纪	-11.3451
范畴	-11.3452
平民	-11.3452
▁男	-11.3454
负面	-11.3457
武侠	-11.3459
他却	-11.346
但是在	-11.346
零部件	-11.346
撩	-11.3464
棕	-11.3466
填写	-11.3466
奥迪	-11.3468
开头	-11.347
爱上了	-11.3471
东南部	-11.3471
所用	-11.3472
目的地	-11.3472
之余	-11.3472
威尔	-11.3473
被认为是	-11.3474
本市	-11.3475
看你	-11.3475
镇政府	-11.3476
复旦大学	-11.3479
不顾	-11.348
之日起	-11.3481
就可以了	-11.3484
化解	-11.3485
冷冻	-11.3485
发表于小说阅读网	-11.3486
投放	-11.3487
旅程	-11.3488
up	-11.3489
许多人	-11.3492
外套	-11.3493
LO	-11.3494
乒乓球	-11.3496
问答	-11.3497
客车	-11.3503
长按	-11.3504
准则	-11.3506
开工	-11.3508
饮用	-11.351
租房	-11.3512
经济效益	-11.3513
下一	-11.3514
折磨	-11.3515
模板	-11.3517
拟定	-11.3517
赶快	-11.3517
中路	-11.3518
明珠	-11.3518
万多	-11.3519
hi	-11.352
有关的	-11.3521
烧烤	-11.3521
人民检察院	-11.3522
该怎么办	-11.3523
襄	-11.3523
正能量	-11.3523
踪	-11.3524
全日制	-11.3527
ec	-11.353
的本质	-11.353
的出现	-11.3533
预订	-11.3535
自拍	-11.3535
GDP	-11.3535
困境	-11.3536
的前提下	-11.3536
最爱	-11.3538
芦	-11.3538
有包厢	-11.3538
秧	-11.3539
捕捉	-11.3539
不死	-11.3541
60%	-11.3541
人民群众	-11.3541
封面	-11.3541
-30	-11.3542
难免	-11.3543
有名的	-11.3544
产能	-11.3544
刑法	-11.3544
拼图	-11.3544
丹麦	-11.3545
刻意	-11.3545
航空公司	-11.3548
1936	-11.3548
事后	-11.3549
硫酸	-11.3551
揭开	-11.3551
非凡	-11.3551
MBA	-11.3553
余名	-11.3553
巧妙	-11.3553
异世	-11.3553
的水平	-11.3553
九龙	-11.3554
的活动	-11.3554
两家	-11.3555
1935	-11.3556
的一本	-11.3558
霸道	-11.3559
掌控	-11.356
耿	-11.3561
制备	-11.3564
1933	-11.3564
变身	-11.3565
儿女	-11.3567
的魅力	-11.3568
带你	-11.3568
始终坚持	-11.3569
阿姨	-11.3572
的经营	-11.3572
日用百货	-11.3573
激活	-11.3574
美国的	-11.3575
共青团	-11.3575
民办	-11.3576
为您提供	-11.3576
几位	-11.3577
OK	-11.3577
搜集	-11.3579
孜	-11.358
怎么做	-11.3581
罕	-11.3582
这边	-11.3583
网易	-11.3584
便秘	-11.3585
些什么	-11.3586
读本	-11.3588
椅	-11.3592
是一种怎样的体验	-11.3592
桂林	-11.3595
说一下	-11.3595
可根据	-11.3597
设计和	-11.3598
美术馆	-11.3598
以色列	-11.3599
比起	-11.3601
信托	-11.3602
级的	-11.3602
对方的	-11.3602
哎	-11.3605
菜品	-11.3605
传送	-11.3606
技术推广	-11.3607
之星	-11.3608
学博士	-11.3608
长按二维码	-11.3608
建筑设计	-11.3609
学的	-11.3609
8.00	-11.3609
if	-11.3609
在家里	-11.361
▁刘	-11.3611
毫不	-11.3611
刹车	-11.3611
热心	-11.3613
好事	-11.3614
ive	-11.3614
谈谈	-11.3615
因为你	-11.3615
比我	-11.3615
原著	-11.3615
十几年	-11.3616
制造商	-11.3616
宫廷	-11.3618
仍在	-11.3621
肥胖	-11.3622
长途	-11.3625
走在	-11.3625
做饭	-11.3625
漠	-11.3626
摆放	-11.3627
倾斜	-11.3629
企业文化	-11.363
年获得	-11.3632
档次	-11.3632
接入	-11.3635
就是这样	-11.3636
pi	-11.3637
利息	-11.3637
必需	-11.3639
定居	-11.364
新浪	-11.3645
心疼	-11.3645
亦有	-11.3646
\	-11.3646
部部长	-11.3647
外来	-11.3648
特色产业	-11.3648
路过	-11.3649
行星	-11.3651
众生	-11.3652
到最后	-11.3653
座位	-11.3653
国际贸易	-11.3656
组件	-11.3657
故乡	-11.3659
高分	-11.3659
少了	-11.366
赞同	-11.3661
的青春	-11.3661
闻名	-11.3663
届时	-11.3664
邮箱	-11.3666
兴起	-11.3666
媒介	-11.3666
锁定	-11.3667
机床	-11.3667
最喜欢的	-11.3668
爆料	-11.3669
爸	-11.367
改装	-11.3671
提及	-11.3671
汇编	-11.3672
是可以	-11.3672
有关规定	-11.3672
建设和	-11.3677
泼	-11.3678
2.6	-11.3678
如何看待	-11.3678
中学生就读到	-11.3678
阎	-11.3679
欧元	-11.368
即使是	-11.3681
体型	-11.3681
大学的	-11.3683
恤	-11.3683
实惠	-11.3683
润滑	-11.3683
崇拜	-11.3689
19.	-11.3689
的结构	-11.3693
家用电器	-11.3694
总觉得	-11.3694
的画面	-11.3695
产后	-11.3695
惩	-11.3697
其他面积	-11.3698
MM	-11.3699
心思	-11.3699
裔	-11.3699
精髓	-11.3699
洛杉矶	-11.3699
深入浅出	-11.3702
占用	-11.3704
的智慧	-11.3705
经贸	-11.3706
或其他	-11.3707
开办	-11.3711
序列	-11.3711
审议	-11.3711
埃尔	-11.3713
货车	-11.3714
会议室	-11.3714
产值	-11.3717
泉州	-11.3721
都不是	-11.3721
半夜	-11.3721
▁特色服务	-11.3721
寝室	-11.3727
亦可	-11.3733
瀑布	-11.3736
酬	-11.3736
教科书	-11.3738
田径	-11.3739
感兴趣的	-11.3742
我们就	-11.3744
▁现在	-11.3744
特朗普	-11.3744
管理体系	-11.3746
地理位置	-11.3748
喵	-11.3751
补助	-11.3753
作词	-11.3754
才华	-11.3758
好玩	-11.376
零食	-11.3762
就想	-11.3762
南阳	-11.3763
伊拉克	-11.3764
美化	-11.3765
必将	-11.3765
反抗	-11.3767
101	-11.3768
在全球	-11.377
触摸	-11.3771
梅花	-11.3772
真人	-11.3772
拨打	-11.3772
的一生	-11.3774
事宜	-11.3775
显示屏	-11.3776
南非	-11.3777
工业大学	-11.3777
却没有	-11.3778
较长	-11.3778
而后	-11.3778
中小	-11.3779
说起	-11.3781
行人	-11.3782
骄	-11.3782
中场	-11.3783
词语	-11.3783
殊	-11.3784
五百	-11.3784
距离村委会卫生所	-11.3784
缩小	-11.3785
真理	-11.3785
的市场	-11.3785
出版的	-11.3786
局面	-11.3787
1940	-11.3787
相声	-11.3788
4.00	-11.3791
诸如	-11.3792
在乎	-11.3794
民用	-11.3796
举措	-11.3797
你喜欢	-11.3799
网络营销	-11.38
艰苦	-11.3801
警告	-11.3804
快速发展	-11.3806
ci	-11.3806
包容	-11.3807
超出	-11.3807
掀起	-11.3807
抽象	-11.3808
高位	-11.3808
硬度	-11.3809
硕士生导师	-11.3809
精盐	-11.3809
塞尔	-11.3812
声誉	-11.3813
他会	-11.3814
距离中学	-11.3815
与应用	-11.3815
不同于	-11.3816
全村有耕地总面积	-11.3817
出资	-11.3819
红尘	-11.382
本报讯	-11.3821
时段	-11.3822
是什么样的	-11.3824
物联网	-11.3825
多大	-11.3825
自愿	-11.3826
拼搏	-11.3827
愚	-11.3827
专业知识	-11.3828
董事会	-11.383
不通	-11.383
前几天	-11.383
破解	-11.3834
蛙	-11.3835
玩的	-11.3836
峡	-11.3837
后代	-11.3837
抄袭	-11.3838
1963	-11.3838
缴纳	-11.3841
的视频	-11.3844
卡拉	-11.3845
美景	-11.3847
系统地	-11.3848
6.00	-11.3848
伦理	-11.3849
花了	-11.3849
不及	-11.385
毫升	-11.3851
和尚	-11.3852
院士	-11.3853
亚军	-11.3853
香油	-11.3853
五月	-11.3854
头上	-11.3854
畜牧业	-11.3856
om	-11.3856
捐赠	-11.3857
为一	-11.3858
早晨	-11.3858
平方	-11.3859
搅拌均匀	-11.386
方程	-11.3861
诡异	-11.3863
展现了	-11.3863
个小	-11.3863
矿物	-11.3864
包含了	-11.3864
最美	-11.3866
中西医结合	-11.3869
设在	-11.387
瞳	-11.3871
工程技术	-11.3872
邪恶	-11.3873
您可以	-11.3874
学霸	-11.3875
山上	-11.3875
现行	-11.3875
宰	-11.3876
甲基	-11.3876
的房子	-11.3876
流域	-11.3877
如果说	-11.3878
盘中	-11.3878
永恒	-11.3879
览	-11.388
其中经济林果地	-11.3881
与中国	-11.3882
分钟后	-11.3882
被动	-11.3882
药用	-11.3882
羞	-11.3884
域名	-11.3884
来临	-11.3884
喘	-11.3888
层层	-11.3889
兼顾	-11.3889
将以	-11.3891
再来	-11.3892
楼市	-11.3895
枸杞	-11.3896
汇报	-11.39
两边	-11.39
越好	-11.3901
表现为	-11.3902
好莱坞	-11.3903
常务	-11.3903
雄蕊	-11.3904
直升机	-11.3904
辱	-11.3904
丧失	-11.3908
生产企业	-11.3909
转动	-11.391
自带	-11.3911
确实是	-11.3913
型的	-11.3914
菜肴	-11.3919
侵略	-11.392
不吃	-11.3921
UI	-11.3921
1800	-11.3923
美军	-11.3923
兜	-11.3927
过得	-11.3928
的脸	-11.3928
人均经济林果地	-11.3929
天主教	-11.393
陌生人	-11.393
那边	-11.3931
针灸	-11.3931
结束了	-11.3935
是没有	-11.3935
脆弱	-11.3936
犯罪嫌疑人	-11.3936
都将	-11.3937
纠正	-11.3937
ud	-11.3938
狐狸	-11.394
金色	-11.394
过分	-11.394
1939	-11.3943
Google	-11.3944
寂	-11.3944
充分利用	-11.3944
贵阳	-11.3945
给孩子	-11.3945
铁道	-11.3945
专业从事	-11.3946
装逼	-11.3946
多部	-11.3946
书面	-11.3947
一般是	-11.3947
雯	-11.3948
济南市	-11.3951
就此	-11.3952
周刊	-11.3953
的习惯	-11.3953
最长	-11.3954
裹	-11.3955
中华民国	-11.3955
花开	-11.3955
▁这	-11.3958
屁股	-11.3958
si	-11.3962
工商行政管理局登记成立	-11.3962
百分之	-11.3963
历史文化	-11.3963
等作物	-11.3964
茸	-11.3965
米饭	-11.3968
公里处	-11.3969
的对象	-11.397
主演的	-11.3971
司令	-11.3971
钧	-11.3971
格尔	-11.3971
侵	-11.3972
想象力	-11.3973
包围	-11.3974
Cl	-11.3975
概论	-11.3976
氨	-11.3977
三位	-11.3977
3-5	-11.3981
契	-11.3981
四方	-11.3982
ix	-11.3984
片段	-11.3984
时许	-11.3984
山路	-11.3984
现存	-11.3984
工程技术人员	-11.3987
告别	-11.3987
眸	-11.3988
与他	-11.3989
更能	-11.3992
标记	-11.3992
IM	-11.3992
器件	-11.3995
知识的	-11.3996
圣经	-11.3997
侵犯	-11.3997
各种各样的	-11.3998
盛世	-11.4002
高尚	-11.4002
所在的	-11.4002
附件	-11.4004
高新技术	-11.4005
AI	-11.4005
原型	-11.4008
狄	-11.4008
求职	-11.4009
奇特	-11.401
之初	-11.401
排队	-11.4011
法定	-11.4013
熊猫	-11.4013
尽情	-11.4015
小说阅读网	-11.4015
灼	-11.4015
7000	-11.4016
这方面	-11.4017
当他	-11.4018
感知	-11.4018
乔治	-11.4018
恒大	-11.4018
疑惑	-11.4019
解锁	-11.4019
下来的	-11.4021
3.3	-11.4022
锅里	-11.4023
伊斯兰	-11.4024
走路	-11.4024
制订	-11.4024
钢结构	-11.4025
八十	-11.4026
抵抗	-11.4028
蜘蛛	-11.4028
干事	-11.403
上天	-11.4031
先进工作者	-11.4031
海南省	-11.4032
独到	-11.4032
上古	-11.4035
中西	-11.4038
一带一路	-11.4039
参演	-11.4041
样品	-11.4042
加水	-11.4045
涉及到	-11.4045
而成的	-11.4046
云中书城	-11.4046
海滩	-11.4048
拿下	-11.4049
LA	-11.4049
不当	-11.4049
洛克	-11.405
1931	-11.405
不下	-11.405
盲目	-11.405
物价	-11.4051
▁h	-11.4051
权限	-11.4051
厉	-11.4051
方块	-11.4052
画画	-11.4052
任性	-11.4052
插入	-11.4054
瞄准	-11.4054
橘	-11.4058
讽刺	-11.4059
右手	-11.4059
死的	-11.406
长篇小说	-11.406
衍生	-11.406
追踪	-11.4061
价值的	-11.4062
王者	-11.4063
等服务	-11.4063
by	-11.4063
0-1	-11.4063
国的	-11.4064
使用者	-11.4064
成名	-11.4066
状元	-11.4066
水面	-11.4068
计算机网络	-11.4068
等待你来	-11.4069
拉丁	-11.4071
还真	-11.4072
自然科学	-11.4072
躲避	-11.4073
从前	-11.4074
高尔夫	-11.4075
达标	-11.4075
宁静	-11.4075
还记得	-11.4076
小女孩	-11.4077
区工商行政管理局登记成立	-11.4078
导游	-11.4078
未必	-11.408
完备	-11.408
生化	-11.4083
SM	-11.4086
颇有	-11.4086
觉得很	-11.4086
注意力	-11.4087
的创作	-11.4088
分工	-11.4089
副校长	-11.409
9001	-11.4091
脖子	-11.4093
剧院	-11.4094
北宋	-11.4094
标本	-11.4094
条纹	-11.4095
朔	-11.4096
的图片	-11.4097
全方位的	-11.4099
二十四	-11.4101
鉴别	-11.4101
翅膀	-11.4102
会影响	-11.4102
一说	-11.4104
分析了	-11.4106
菊花	-11.4106
烷	-11.4106
美术学院	-11.4106
3.2	-11.4106
也不知道	-11.4106
首位	-11.4107
麓	-11.4108
攒	-11.4108
晃	-11.4108
泄漏	-11.4109
Web	-11.4109
到省外务工	-11.4109
列为	-11.4111
分明	-11.4112
FC	-11.4112
Note	-11.4112
絮	-11.4112
门店	-11.4112
的法律	-11.4113
本书以	-11.4115
庶	-11.4117
的手	-11.4118
在校	-11.4118
该村小学生就读到	-11.4119
录像	-11.412
属于山区	-11.412
门票	-11.4121
言语	-11.4121
人工智能	-11.4122
编译	-11.4122
的特殊	-11.4124
的教材	-11.4125
半导体	-11.4126
机型	-11.4126
又要	-11.4127
离开了	-11.4128
之王	-11.4128
乱世	-11.4129
从小就	-11.413
折扣	-11.4131
交际	-11.4132
教学工作	-11.4133
愉悦	-11.4134
我只	-11.4135
1941	-11.4136
一顿	-11.4136
碎片	-11.4137
爱尔兰	-11.4138
哥们	-11.4139
决议	-11.4142
在我们	-11.4144
好玩的	-11.4144
陀	-11.4145
各省	-11.4146
胎儿	-11.4146
一步步	-11.4147
饿	-11.4148
遇到的	-11.4148
抓好	-11.4148
阿里巴巴	-11.4149
文化交流	-11.4149
-18	-11.415
ina	-11.4153
7-	-11.4155
编织	-11.4158
派出	-11.4158
中国当代	-11.4159
把她	-11.4159
小孩子	-11.416
嗣	-11.4162
ji	-11.4162
主料	-11.4162
急救	-11.4164
整洁	-11.4164
通往	-11.4165
理论与实践	-11.4166
黛	-11.4169
腹黑	-11.4169
起床	-11.417
不出来	-11.4172
US	-11.4172
在国外	-11.4172
月经	-11.4173
证件	-11.4173
清明	-11.4173
营运	-11.4174
高新	-11.4174
华盛顿	-11.4175
的网络	-11.4178
纠缠	-11.4178
生抽	-11.4182
妍	-11.4184
操纵	-11.4184
健身房	-11.4185
▁广州	-11.4185
领导下	-11.4186
3.1	-11.4186
皖	-11.4187
文案	-11.4188
5°	-11.4191
产于	-11.4193
洗干净	-11.4193
4-5	-11.4194
赞誉	-11.4195
你有	-11.4195
唯美	-11.4195
开采	-11.4197
当做	-11.42
列出	-11.4202
课本	-11.4206
科室	-11.4207
技术研发	-11.4207
这里空空如也	-11.4208
从不	-11.4209
ve	-11.4211
的独特	-11.4213
1.9	-11.4214
Br	-11.4214
扩建	-11.4215
粉末	-11.4216
西北部	-11.4216
1600	-11.4218
省教育厅	-11.4218
Mac	-11.4225
越高	-11.4226
美国人	-11.4226
产业化	-11.4227
的发生	-11.4229
自来水	-11.423
学术论文	-11.423
用力	-11.423
攻读	-11.4231
他又	-11.4235
薄膜	-11.4237
骨折	-11.4238
理事会	-11.4238
本科毕业	-11.424
第四届	-11.4241
为一体	-11.4241
额度	-11.4242
祭祀	-11.4242
农作物	-11.4243
地道	-11.4244
的其他	-11.4244
是通过	-11.4246
当然是	-11.4247
play	-11.4248
数字化	-11.4249
专为	-11.425
簿	-11.4251
东亚	-11.4253
街道办事处	-11.4253
周杰伦	-11.4254
战国	-11.4255
作者是王	-11.4257
欺骗	-11.4259
平淡	-11.4259
沙滩	-11.4259
和方法	-11.426
红楼梦	-11.4262
描	-11.4262
的办学	-11.4262
南山	-11.4264
绝对是	-11.4264
琦	-11.4266
渔业	-11.427
る	-11.4271
XX	-11.4271
出手	-11.4272
并获得	-11.4272
差点	-11.4272
淡水	-11.4274
鉴赏	-11.4274
护肤品	-11.4277
道教	-11.4278
农村土地承包面积	-11.4278
哉	-11.428
往事	-11.428
失误	-11.428
的人们	-11.4281
寓意	-11.4282
ick	-11.4283
控制器	-11.4283
的兴趣	-11.4285
杠	-11.4286
底下	-11.4286
极致	-11.4287
绥	-11.4287
2020	-11.4288
魅族	-11.4291
图标	-11.4291
巨人	-11.4295
极度	-11.4297
暗恋	-11.4301
建模	-11.4302
溺	-11.4302
我能	-11.4303
祛	-11.4305
不明白	-11.4306
微型	-11.4306
终结	-11.4308
历年	-11.4309
要说	-11.4309
杖	-11.4309
体长	-11.431
装潢	-11.4311
分布在	-11.4312
分析和	-11.4313
镜子	-11.4314
????	-11.4316
求助	-11.4317
经纪	-11.4318
成立的	-11.432
的女	-11.4322
卡片	-11.4323
买入	-11.4326
注明	-11.4328
素描	-11.4328
ke	-11.4329
请不要	-11.4333
我可以	-11.4333
限定	-11.4333
执业	-11.4334
是根据	-11.4335
人员的	-11.4335
启用	-11.4336
感人	-11.4337
眼球	-11.4338
首府	-11.4339
车内	-11.4339
号称	-11.4339
很多时候	-11.4339
效力于	-11.4339
高职高专	-11.434
衬衫	-11.434
流行的	-11.4342
Mar	-11.4343
滕	-11.4343
为主题	-11.4343
你也	-11.4345
分钟左右	-11.4346
Pa	-11.4347
窥	-11.4348
星级	-11.4349
文笔	-11.4351
婴幼儿	-11.4353
阜	-11.4353
各界	-11.4355
如果您	-11.4355
祖父	-11.4356
尔斯	-11.4359
lu	-11.4361
旗舰	-11.4362
中国画	-11.4363
起来的	-11.4364
新材料	-11.4364
主讲	-11.4364
长篇	-11.4364
的动物	-11.4366
忍受	-11.4369
教学质量	-11.4372
抑郁	-11.4372
发展趋势	-11.4373
售后	-11.4373
商圈	-11.4373
车程约	-11.4376
维奇	-11.4377
个国家	-11.4378
行李	-11.4379
可以看出	-11.4381
樊	-11.4382
无可	-11.4384
公示	-11.4385
自己也	-11.4385
征集	-11.4386
偏偏	-11.4386
研究领域	-11.4386
的幸福	-11.4387
梳	-11.4388
致命	-11.4389
总局	-11.439
不规则	-11.439
肉质	-11.439
政策根据您所选定的客房而有所不同	-11.439
吸引力	-11.4392
若是	-11.4392
当场	-11.4393
RA	-11.4394
鲜花	-11.4395
如何在	-11.4395
态势	-11.4396
再见	-11.4396
悬疑	-11.4396
延安	-11.4397
插图	-11.4397
诗集	-11.4397
立案	-11.4398
还算	-11.4399
郑州市	-11.4399
现今	-11.4401
信念	-11.4402
大蒜	-11.4402
意为	-11.4402
叔叔	-11.4402
诛	-11.4403
误会	-11.4404
水平的	-11.4406
并被	-11.4407
开门	-11.4409
发了	-11.4409
自制	-11.4409
不容	-11.441
绘本	-11.4412
语言学	-11.4413
秋冬	-11.4415
注释	-11.4415
量化	-11.4419
色调	-11.4419
多年生	-11.442
的定义	-11.442
pe	-11.4421
烈士	-11.4422
洽谈	-11.4422
黑人	-11.4426
古老的	-11.4426
峻	-11.4427
CN	-11.4428
更多详情请查看您所选定的客房的政	-11.4428
就是要	-11.4429
新款	-11.443
长圆形	-11.4431
还得	-11.4435
恰	-11.4435
3.6	-11.4435
套装	-11.4435
戚	-11.4437
乡政府	-11.4437
海峡	-11.4438
四肢	-11.4438
按键	-11.4439
相关专业	-11.4439
机理	-11.4439
注册资本	-11.444
质地	-11.4441
菱	-11.4443
逃避	-11.4443
陈列	-11.4443
全球化	-11.4445
长寿	-11.4445
恒星	-11.4448
剧场	-11.4449
溃疡	-11.4451
腌制	-11.4452
心动	-11.4454
培养学生	-11.4456
身后	-11.4457
动机	-11.4457
商业银行	-11.4457
还是有	-11.4458
是一座	-11.446
au	-11.446
有用	-11.4462
汇集	-11.4462
探测	-11.4462
安防	-11.4463
饱满	-11.4464
开始游戏	-11.4466
锥	-11.4467
也曾	-11.4467
国会	-11.4468
个人觉得	-11.4468
噪音	-11.447
乐视	-11.4471
又不	-11.4474
上百	-11.4474
边境	-11.4475
绪	-11.4477
TI	-11.4479
在读	-11.448
在校学生	-11.448
彩虹	-11.448
男的	-11.4483
媛	-11.4483
液晶电视	-11.4483
尾巴	-11.4484
挪威	-11.4485
优良的	-11.4485
他们是	-11.4485
全场	-11.4486
定时	-11.4486
し	-11.4486
湿度	-11.4488
▁you	-11.4493
麦克	-11.4498
占比	-11.4498
扮	-11.4499
1942	-11.4499
有意	-11.45
技术创新	-11.4502
的优秀	-11.4503
不允许	-11.4504
畸形	-11.4505
纬	-11.4506
ll	-11.4506
AM	-11.4507
纯净	-11.4508
红枣	-11.4508
袍	-11.451
这片	-11.4512
显示器	-11.4513
以前的	-11.4515
管家	-11.4515
脑袋	-11.4516
海口	-11.4516
鸟类	-11.4519
计生	-11.452
希拉里	-11.4522
放射	-11.4525
靴	-11.4525
用电	-11.4525
术后	-11.4526
盒子	-11.4526
枢纽	-11.4527
西安市	-11.4528
斯克	-11.4529
主要内容包括	-11.4529
勉	-11.4531
GO	-11.4532
年生于	-11.4532
老化	-11.4533
int	-11.4536
一个问题	-11.4537
瑜	-11.4538
装配	-11.4538
生前	-11.4541
鲸	-11.4541
并无	-11.4543
干什么	-11.4543
米尔	-11.4545
伤口	-11.4546
烟台	-11.4546
距离镇卫生院	-11.4547
首先要	-11.4547
深夜	-11.4548
宾客	-11.4549
知名的	-11.4552
普通话	-11.4552
ear	-11.4552
魁	-11.4556
的一面	-11.4557
EC	-11.4558
心脏病	-11.4558
价位	-11.4559
每位	-11.4559
+1	-11.4562
哈哈哈	-11.4563
诀	-11.4564
管理者	-11.4565
终究	-11.4565
不被	-11.4566
有送餐	-11.4567
定向	-11.4568
加深	-11.4571
人为	-11.4572
绑	-11.4572
意义的	-11.4572
一本书	-11.4573
降临	-11.4573
起诉	-11.4573
逆天	-11.4573
生病	-11.4574
镀	-11.4575
副书记	-11.4575
全文	-11.4577
命运的	-11.4577
木质	-11.4577
ton	-11.4577
:"	-11.458
拆迁	-11.4584
轨道交通	-11.4585
汇率	-11.4585
油脂	-11.4587
are	-11.4587
雍	-11.4587
校友	-11.4588
重力	-11.4589
清单	-11.4592
技术研究	-11.4592
茜	-11.4593
强力	-11.4593
榆	-11.4597
鸽	-11.4598
潜能	-11.4598
用以	-11.4599
▁怎么	-11.46
是我的	-11.46
不肯	-11.4601
产物	-11.4602
带上	-11.4602
煞	-11.4603
要用	-11.4603
蠢	-11.4604
有限公司是一家	-11.4604
隐私	-11.4604
管理的	-11.4606
好人	-11.4607
在我国	-11.4608
稳健	-11.4608
关系的	-11.4609
金山	-11.461
猎人	-11.461
面积约	-11.4611
没钱	-11.4611
尺度	-11.4612
即是	-11.4613
写下	-11.4614
不便	-11.4615
水源	-11.4616
考证	-11.4618
稳步	-11.4619
穿越到	-11.4619
学专业	-11.4621
视力	-11.4624
否定	-11.4624
磷酸	-11.4624
开展了	-11.4625
血糖	-11.4626
186	-11.4628
显卡	-11.4628
组织开展	-11.4628
女装	-11.4631
柴油	-11.4631
......”	-11.4631
的分析	-11.4632
游览	-11.4633
汇总	-11.4634
1932	-11.4634
民营企业	-11.4635
现在已经	-11.4639
糟糕	-11.4639
培训机构	-11.464
的父母	-11.464
一个人的	-11.4641
大同	-11.4641
amp	-11.4642
的利益	-11.4642
TO	-11.4644
体育场	-11.4645
ss	-11.4646
性疾病	-11.4646
nt	-11.4647
的大小	-11.4647
可以从	-11.4647
1944	-11.4647
加重	-11.4649
沿着	-11.4649
贬	-11.465
门诊	-11.465
外资	-11.4651
钢管	-11.4652
并为	-11.4653
同胞	-11.4655
ス	-11.4655
ist	-11.4656
完全不	-11.4656
运算	-11.4656
身亡	-11.4657
县工商行政管理局登记成立	-11.4657
的动力	-11.4657
抱歉	-11.4658
铝合金	-11.4659
口径	-11.466
大使	-11.4661
中文版	-11.4664
任何人	-11.4665
很不错	-11.4666
变种	-11.4669
一大批	-11.4669
转身	-11.4671
品尝	-11.4671
生活方式	-11.4673
监督检查	-11.4674
一头	-11.4675
再到	-11.4675
大腿	-11.4675
一般来说	-11.4675
突发	-11.4675
VI	-11.4677
考入	-11.468
一举	-11.4681
揭示	-11.4681
▁l	-11.4681
Bo	-11.4683
垄断	-11.4683
级别的	-11.4684
art	-11.4686
足够的	-11.4687
历时	-11.4687
开出	-11.4687
近年	-11.4688
通路	-11.4689
量子	-11.4691
卑	-11.4691
台词	-11.4692
贴心	-11.4692
星际	-11.4693
滑雪	-11.4694
注册资金	-11.4696
名年龄较大的儿童或者成人	-11.4697
脐	-11.4699
愿望	-11.4699
是非	-11.4701
村人	-11.4701
左手	-11.4705
文明单位	-11.4706
腕	-11.4706
印尼	-11.4706
这里有	-11.4707
时报	-11.4707
契约	-11.4709
可怕的	-11.4709
3.8	-11.471
5.0	-11.471
有毒	-11.4711
该村距离小学校	-11.4713
追逐	-11.4714
的歌曲	-11.4715
适当的	-11.4717
二者	-11.4718
上行	-11.4718
人性化	-11.4719
黄山	-11.4719
主要经营	-11.472
妊娠	-11.4721
又会	-11.4722
选购	-11.4723
ob	-11.4724
丫	-11.4726
财务管理	-11.4728
一圈	-11.4729
分级	-11.4732
等专业	-11.4733
加州	-11.4734
绿地	-11.4734
拟订	-11.4734
连载网站	-11.4734
高质量	-11.4735
DC	-11.4736
浙江大学	-11.4736
是集	-11.4738
富裕	-11.4738
要知道	-11.4739
床上	-11.4741
整改	-11.4742
上大学	-11.4742
古今	-11.4743
是否会	-11.4744
变压器	-11.4746
旷	-11.4746
滋味	-11.4747
短篇小说	-11.4747
猜测	-11.4748
残酷	-11.4749
阿拉	-11.4749
RS	-11.475
一下子	-11.475
五行	-11.4751
沈阳市	-11.4752
注意到	-11.4752
雏	-11.4753
询	-11.4758
在游戏中	-11.4761
良心	-11.4761
追究	-11.4762
你怎么	-11.4762
衍	-11.4764
深远	-11.4765
小事	-11.4765
格林	-11.4765
地名	-11.4767
郝	-11.4767
总占地面积	-11.4768
马拉松	-11.4768
750	-11.4768
大爷	-11.4768
举例	-11.4769
因为它	-11.4772
穿上	-11.4772
针织	-11.4772
买家	-11.4772
放进	-11.4772
嗜	-11.4774
特质	-11.4775
探究	-11.4775
斯塔	-11.4776
富贵	-11.4777
使读者	-11.4777
学研究	-11.4779
不禁	-11.4779
美男	-11.478
我发现	-11.4781
评分	-11.4781
古老	-11.4782
三是	-11.4783
拥抱	-11.4783
月下旬	-11.4783
庞大的	-11.4786
小子	-11.4786
悬挂	-11.4786
调度	-11.4787
山村	-11.4788
甜美	-11.4789
靠谱	-11.4789
凿	-11.479
攻关	-11.479
鳞片	-11.4792
风流	-11.4792
等特点	-11.4792
驻地	-11.4793
推送	-11.4793
蔓	-11.4795
隔壁	-11.4796
无线电	-11.4797
炎症	-11.4797
离不开	-11.4797
LE	-11.4798
样式	-11.4799
就连	-11.4799
火热	-11.4799
在一次	-11.48
东北部	-11.48
中国国际	-11.48
口号	-11.4801
子宫	-11.4801
日照	-11.4802
深厚	-11.4802
会使	-11.4802
倩	-11.4803
安心	-11.4804
家装	-11.4805
等为主	-11.4806
ED	-11.4806
尊贵	-11.4806
改良	-11.4807
一会	-11.4812
坏了	-11.4813
斐	-11.4813
疫苗	-11.4814
死者	-11.4816
布拉	-11.4817
不再是	-11.4817
合法权益	-11.4817
概述	-11.4818
适宜种植	-11.4818
一起来	-11.4818
用过	-11.4819
Java	-11.482
西侧	-11.4821
作者是李	-11.4822
非要	-11.4823
海量	-11.4824
TE	-11.4825
紧邻	-11.4825
晖	-11.4826
意义上	-11.4826
火花	-11.4827
随时随地	-11.4827
衔接	-11.4827
;(2)	-11.4828
莫名	-11.4829
た	-11.4831
阻碍	-11.4831
线性	-11.4832
▁10	-11.4833
火星	-11.4833
再用	-11.4837
赞助	-11.4838
被授予	-11.4838
机电设备	-11.4839
面的	-11.4839
台阶	-11.4841
踏上	-11.4842
存放	-11.4842
能看到	-11.4842
灭火	-11.4842
的距离	-11.4843
小伙伴	-11.4844
日正式	-11.4845
这个词	-11.4846
究竟是	-11.4846
实质	-11.4847
晚年	-11.4847
酚	-11.4848
对应的	-11.4849
盏	-11.4849
男神	-11.4849
经验和	-11.485
等相关	-11.485
装甲	-11.4851
跑道	-11.4852
入驻	-11.4852
渲染	-11.4853
安全感	-11.4854
冷酷	-11.4854
三层	-11.4856
很想	-11.4856
比较大	-11.4857
庆典	-11.4857
气味	-11.4857
坟	-11.4858
否认	-11.4858
洗涤	-11.486
的有效	-11.4866
燥	-11.4868
领导的	-11.4868
更具	-11.4868
ey	-11.4869
▁d	-11.487
传说中的	-11.487
人力	-11.487
变速箱	-11.4871
便可	-11.4871
镜像问题	-11.4873
哼	-11.4873
飞船	-11.4874
联通	-11.4874
我感觉	-11.4874
查阅	-11.4875
国内的	-11.4875
末端	-11.4875
除去	-11.4877
店内	-11.4877
已完成	-11.4877
违法行为	-11.4877
自己喜欢的	-11.4878
秉	-11.4881
的第一个	-11.4881
匈牙利	-11.4881
巍	-11.4883
拘	-11.4885
是一件	-11.4886
不限	-11.4889
全村有	-11.489
1300	-11.4892
奶粉	-11.4893
银河	-11.4893
台上	-11.4894
右侧	-11.4894
敏捷	-11.4895
ber	-11.4896
折叠	-11.4897
支部	-11.4897
参加农村合作医疗	-11.4897
并购	-11.4898
科长	-11.4898
材料的	-11.4899
光芒	-11.4899
反击	-11.49
老家	-11.4902
商户	-11.4902
转化为	-11.4903
AA	-11.4903
方法和	-11.4904
儿童及加床	-11.4904
洼	-11.4905
浓缩	-11.4907
不惜	-11.4908
的软件	-11.4908
感慨	-11.4909
藏书	-11.4909
行政管理	-11.4912
135	-11.4915
太多了	-11.4916
les	-11.4916
要在	-11.4917
两只	-11.4917
督促	-11.4917
写字楼	-11.4918
就是在	-11.4919
my	-11.4921
耻	-11.4921
娱	-11.4922
共产党	-11.4922
史学	-11.4924
end	-11.4925
户籍	-11.4926
将近	-11.4927
该村现有农户	-11.4928
十个	-11.4928
不符合	-11.4929
交付	-11.4934
意愿	-11.4935
作出了	-11.4937
香菜	-11.4937
EP	-11.4938
尼斯	-11.4938
钞	-11.4938
PM	-11.4939
的运动	-11.4942
本科学历	-11.4944
迷你	-11.4944
绑架	-11.4947
万年	-11.4947
的认可	-11.4948
草莓	-11.4949
全集	-11.495
老师的	-11.4953
大纲	-11.4955
性好	-11.4955
体的	-11.4956
奢华	-11.4956
要看	-11.4956
漏洞	-11.4957
军官	-11.4959
随笔	-11.4959
峨	-11.4959
围棋	-11.4959
日凌晨	-11.4961
怀念	-11.4962
巡回	-11.4965
没了	-11.4967
全面发展	-11.4969
SCI	-11.4969
免去	-11.497
灿	-11.4972
花冠	-11.4972
知道自己	-11.4973
了几	-11.4973
全自动	-11.4974
演化	-11.4975
ts	-11.4977
并组织实施	-11.4978
得不到	-11.4979
Sp	-11.4979
霸气	-11.498
以下是	-11.498
超强	-11.498
炳	-11.4982
工艺美术	-11.4982
犹豫	-11.4982
的网络小说	-11.4983
在未来	-11.4983
那个人	-11.4984
SH	-11.4984
坚守	-11.4987
兵器	-11.4987
内分泌	-11.4988
三产业收入	-11.4988
浴室	-11.4989
旬	-11.4989
西南部	-11.4989
区域内	-11.499
类专业	-11.4992
打出	-11.4992
烧开	-11.4993
迅	-11.4994
胀	-11.4995
吸血鬼	-11.4997
插画	-11.4999
对战	-11.4999
哨	-11.5001
第一批	-11.5002
特约	-11.5002
农业部	-11.5003
当地的	-11.5004
平台上	-11.5006
保证了	-11.5006
作者是张	-11.5006
唯有	-11.5007
胆固醇	-11.5008
航线	-11.5008
检察	-11.5008
情趣	-11.5009
农家	-11.501
不舒服	-11.5013
工作经验	-11.5013
窍	-11.5014
娅	-11.5015
社科	-11.5017
ind	-11.5018
画风	-11.5019
传记	-11.5019
沿线	-11.502
四处	-11.5021
光纤	-11.5021
县人民政府	-11.5023
育儿	-11.5024
▁阿	-11.5026
不乏	-11.5026
社保	-11.5028
聂	-11.5029
第五届	-11.503
不准	-11.5032
整车	-11.5032
知道了	-11.5032
也许是	-11.5033
骨头	-11.5034
已经在	-11.5037
迦	-11.5038
头像	-11.5038
金属材料	-11.5038
绝世	-11.504
桓	-11.5041
蔚	-11.5042
惯	-11.5042
而我	-11.5043
动感	-11.5043
哑	-11.5045
焰	-11.5046
下一步	-11.5046
伴侣	-11.5047
7.00	-11.5047
洪水	-11.5048
的印象	-11.5049
号召	-11.5049
在国内外	-11.505
何处	-11.5051
呕吐	-11.5057
无人机	-11.5057
爵士	-11.5057
孤儿	-11.5059
280	-11.5062
日本的	-11.5064
中新网	-11.5065
湖泊	-11.5066
第三次	-11.5067
看我	-11.5068
配套设施	-11.5071
有几个	-11.5072
的情绪	-11.5073
的数量	-11.5073
理论和	-11.5074
联动	-11.5076
降温	-11.5077
发作	-11.5077
社会保障	-11.5077
极品	-11.5078
以外的	-11.5078
强奸	-11.5079
以南	-11.5082
购车	-11.5083
耐磨	-11.5084
第一家	-11.5084
饥	-11.5085
1400	-11.5086
想问	-11.5086
四级	-11.5087
亲爱的	-11.5088
为期	-11.5089
搏	-11.5091
师从	-11.5091
一个新的	-11.5092
:「	-11.5092
▁[	-11.5093
调理	-11.5094
手持	-11.5095
高级工程师	-11.5097
De	-11.5097
愧	-11.5098
抓获	-11.5099
造纸	-11.51
阴道	-11.51
同情	-11.5103
中国传统	-11.5104
高产	-11.5104
提供一个	-11.5105
都不能	-11.5106
DI	-11.5107
误解	-11.5108
寅	-11.5108
幼稚	-11.511
配以	-11.5113
动员	-11.5114
喜光	-11.5115
共乡村人口	-11.5116
▁Co	-11.5116
NG	-11.5117
奕	-11.5118
暧昧	-11.5118
余种	-11.5118
ace	-11.5119
争霸	-11.512
社会发展	-11.5121
毒性	-11.5121
机车	-11.5122
管委会	-11.5123
交友	-11.5123
曹操	-11.5124
没啥	-11.5124
胶囊	-11.5124
所长	-11.5124
农历	-11.5125
存在着	-11.5127
从一个	-11.5129
组装	-11.5129
见识	-11.513
的妻子	-11.5132
天猫	-11.5134
演示	-11.5134
亦是	-11.5134
裴	-11.5135
父母的	-11.5136
推崇	-11.5136
氨酸	-11.5137
金融服务	-11.5137
所能	-11.5139
我也是	-11.5139
指责	-11.5141
习俗	-11.5142
凄	-11.5142
的女子	-11.5143
传授	-11.5143
测绘	-11.5144
的决定	-11.5144
加密	-11.5145
压制	-11.5145
昨晚	-11.5147
泰山	-11.515
多平方米	-11.515
一中	-11.5153
河畔	-11.5153
改制	-11.5154
流入	-11.5155
条约	-11.5156
185	-11.5156
簇	-11.5156
的体验	-11.5157
吸附	-11.5157
研究方向	-11.5158
田园	-11.5158
9.5	-11.516
刹	-11.516
开学	-11.516
嵩	-11.5161
产品设计	-11.5162
银行卡	-11.5162
甘蔗	-11.5162
欺	-11.5163
舰队	-11.5164
斧	-11.5164
恋情	-11.5166
的贡献	-11.5168
现身	-11.5168
中式	-11.5169
援助	-11.517
伽	-11.5171
惊讶	-11.5172
龚	-11.5173
残忍	-11.5173
好不好	-11.5174
东侧	-11.5174
TP	-11.5175
威廉	-11.5176
!(	-11.5176
少爷	-11.5177
配备了	-11.5177
虚假	-11.5178
NA	-11.518
的个人	-11.518
RE	-11.5181
可口	-11.5182
给出了	-11.5182
受损	-11.5184
乌鲁木齐	-11.5184
制剂	-11.5184
开朗	-11.5184
必定	-11.5185
对自己的	-11.5185
研究与	-11.5186
涨停	-11.5187
的歌	-11.5188
矢	-11.5188
协定	-11.5189
出名	-11.519
第一步	-11.5192
嘎	-11.5193
退货	-11.5194
太极	-11.5195
个人认为	-11.5195
措	-11.5195
多吃	-11.5197
dy	-11.5197
疹	-11.5197
区委	-11.5198
文化产业	-11.5199
骨骼	-11.5199
钱包	-11.52
型企业	-11.5201
冤	-11.5201
战队	-11.5202
文学作品	-11.5203
可行	-11.5204
认识的	-11.5206
规划教材	-11.5206
我爱你	-11.5206
放弃了	-11.5207
三十年	-11.5208
大理	-11.5208
色素	-11.5208
成年	-11.5209
理智	-11.5209
车子	-11.5209
坚持以	-11.5214
工程有限公司于	-11.5214
怜	-11.5215
天上	-11.5215
起伏	-11.5215
é	-11.5216
这么大	-11.5217
禁忌	-11.5217
摄入	-11.5217
审理	-11.5217
已在	-11.5218
TS	-11.5218
能力强	-11.522
振兴	-11.522
金币	-11.5222
还未	-11.5223
居委会	-11.5227
及以上	-11.5228
梭	-11.5229
意图	-11.523
了大量的	-11.5232
每一次	-11.5233
调入	-11.5234
临近	-11.5234
面具	-11.5234
国画	-11.5234
适中	-11.5234
不分	-11.5236
过哪些	-11.5238
win	-11.5239
适时	-11.5239
人口密度每平方公里	-11.524
家教	-11.5241
冶	-11.5242
开玩笑	-11.5244
大力支持	-11.5245
EX	-11.5245
无所	-11.5246
后方	-11.5246
的美好	-11.5246
旗下的	-11.5249
艺术学院	-11.5249
孢子	-11.525
工地	-11.5252
.....	-11.5252
决定了	-11.5252
的各项	-11.5252
的趋势	-11.5254
矩	-11.5255
执政	-11.5255
果断	-11.5255
工商管理	-11.5256
槐	-11.5256
红外	-11.5257
辖区内	-11.5258
入围	-11.5259
学习者	-11.5261
潇洒	-11.5261
再也	-11.5261
参编	-11.5262
山顶	-11.5263
的心灵	-11.5263
惩罚	-11.5264
残留	-11.5267
管理制度	-11.5268
收益率	-11.5268
门户网站	-11.5269
聚合	-11.5271
▁所以	-11.5272
劣	-11.5273
我们会	-11.5273
如果我	-11.5273
表格	-11.5274
的商品	-11.5275
这块	-11.5275
楼梯	-11.5277
就很	-11.5277
!《	-11.5277
正经	-11.5278
伊斯兰教	-11.5279
网购	-11.5279
课外	-11.5279
之所	-11.528
钛	-11.5281
豪门	-11.5282
呗	-11.5283
八大	-11.5283
总共	-11.5283
为了让	-11.5285
表述	-11.5286
凸显	-11.5292
Le	-11.5293
我公司	-11.5294
皂	-11.5294
居家	-11.5296
去过	-11.5297
仍有	-11.5297
舜	-11.5298
香水	-11.5299
}	-11.5301
历史悠久	-11.5302
为用户提供	-11.5303
背后的	-11.5303
株高	-11.5304
墓地	-11.5305
特意	-11.5305
风貌	-11.5306
吉祥	-11.5307
流氓	-11.5307
前列	-11.5307
参考书	-11.5308
▁金	-11.5308
券商	-11.5309
离奇	-11.5309
Ar	-11.5312
百家	-11.5312
心目中	-11.5313
奔跑	-11.5314
妇产科	-11.5314
即为	-11.5314
逮捕	-11.5315
主要产品有	-11.5316
发达国家	-11.5316
民主党	-11.5318
▁St	-11.5318
bi	-11.5318
永不	-11.5319
误差	-11.5319
部份	-11.5322
美白	-11.5325
已于	-11.5325
门前	-11.5325
油菜	-11.5326
日常生活中	-11.5326
奥斯卡	-11.5328
满了	-11.5329
ect	-11.5329
专业委员会	-11.533
撒上	-11.533
而得名	-11.5331
起点中文网	-11.5332
拿起	-11.5332
在他的	-11.5333
的一项	-11.5334
的全部	-11.5336
办公厅	-11.5336
日后	-11.5338
肝脏	-11.5339
前任	-11.534
教育培训	-11.5342
万历	-11.5343
男士	-11.5345
可通过	-11.5345
的办法	-11.5346
预定	-11.5347
但又	-11.5347
错误的	-11.5348
三月	-11.5348
认识了	-11.5348
废物	-11.5351
请注意	-11.5351
紧紧	-11.5352
开封	-11.5353
伴随	-11.5354
苏州市	-11.5354
哒	-11.5355
马云	-11.5355
两项	-11.5355
就这么	-11.5355
经济增长	-11.5356
蛋黄	-11.5359
风湿	-11.5359
二手	-11.5359
样本	-11.5363
签名	-11.5363
以至于	-11.5363
首创	-11.5363
收盘	-11.5365
因为他们	-11.5366
混沌	-11.5367
一两	-11.5367
应力	-11.5367
电站	-11.5368
想做	-11.5369
斯基	-11.5369
万千	-11.5369
的细节	-11.5371
所有人都	-11.5373
一幕	-11.5373
国家自然科学基金	-11.5374
都需要	-11.5375
春风	-11.5375
这事	-11.5378
工科	-11.5379
嫌疑人	-11.538
乳房	-11.538
颈部	-11.5381
结实	-11.5381
日用品	-11.5382
初始	-11.5382
门外	-11.5385
重心	-11.5385
桌子	-11.5385
年成立	-11.5386
我当时	-11.5386
潜水	-11.5386
访谈	-11.5389
怎	-11.5389
行政村	-11.5389
腹泻	-11.539
说服	-11.5391
默认	-11.5391
口袋	-11.5391
面临的	-11.5392
看电影	-11.5392
之后的	-11.5394
拉开	-11.5395
插件	-11.5396
有很大	-11.5396
等着	-11.5397
一次次	-11.5398
媒体报道	-11.5398
悄悄	-11.5398
十一五	-11.5399
Cr	-11.5399
本期	-11.54
都会有	-11.54
风吹	-11.5401
林业收入	-11.5402
感觉自己	-11.5403
生产经营	-11.5403
预备	-11.5405
担忧	-11.5406
锯齿	-11.5409
人造	-11.541
去掉	-11.5411
讲授	-11.5413
呼吁	-11.5413
的唯一	-11.5414
惊人	-11.5414
全校	-11.5414
芙	-11.5415
人选	-11.5417
1943	-11.5417
坂	-11.5421
感叹	-11.5423
处分	-11.5425
Ch	-11.5425
冲洗	-11.5425
手套	-11.5427
跟我说	-11.5428
火腿	-11.5429
亚马逊	-11.543
晋级	-11.5433
污水	-11.5433
水产	-11.5434
年出生于	-11.5434
网站建设	-11.5436
IE	-11.5436
任何一个	-11.5436
可靠的	-11.5437
就去	-11.5439
程序设计	-11.5439
为主线	-11.5441
对阵	-11.5441
图解	-11.5441
病理	-11.5441
寻常	-11.5441
TM	-11.5442
.10	-11.5442
大家的	-11.5442
裤子	-11.5443
不定	-11.5443
江县	-11.5444
立马	-11.5444
寒冷	-11.5446
民航	-11.5446
oc	-11.5446
德尔	-11.5446
杀了	-11.5449
利好	-11.5453
即可开始游戏	-11.5455
似的	-11.5455
轮廓	-11.5455
天后	-11.5455
不可思议	-11.5456
过往	-11.5456
高度重视	-11.5457
定期开展村务公开	-11.5458
体育馆	-11.5458
AV	-11.546
魔王	-11.5464
典范	-11.5465
イ	-11.5465
伸出	-11.5466
躺	-11.5466
不了解	-11.5467
报社	-11.5467
低压	-11.5467
油田	-11.5468
酸性	-11.5469
DE	-11.5471
认为是	-11.5471
给您	-11.5475
交易所	-11.5475
嘉兴	-11.548
")	-11.5482
上千	-11.5482
博弈	-11.5483
人民法院	-11.5484
大四	-11.5485
浴缸	-11.5485
无知	-11.5489
马力	-11.5489
和应用	-11.5489
哭了	-11.5489
遗忘	-11.549
列举	-11.549
件事	-11.5492
师资	-11.5492
外壳	-11.5493
mp	-11.5494
八字	-11.5496
社长	-11.5499
魔术	-11.55
GPS	-11.55
吸烟	-11.55
打印机	-11.5504
美誉	-11.5504
造成了	-11.5504
得好	-11.5506
壮大	-11.5507
跑到	-11.5508
国家标准	-11.5508
卓越的	-11.5509
构思	-11.5509
的业务	-11.551
水资源	-11.5511
终止	-11.5511
6.7	-11.5512
公立	-11.5513
吃完	-11.5514
奇异	-11.5515
骗子	-11.5516
七个	-11.5518
立志	-11.552
▁这是	-11.552
了呢	-11.5521
作为一名	-11.5521
着我	-11.5521
}-	-11.5522
学博士学位	-11.5524
哪儿	-11.5524
曾多次	-11.5527
烟草	-11.5527
多层	-11.5528
厨师	-11.5528
贯彻执行	-11.553
几句	-11.553
的追求	-11.553
外星人	-11.5532
-16	-11.5532
联手	-11.5532
发表学术论文	-11.5533
报讯	-11.5533
什么样	-11.5536
预报	-11.5536
已知	-11.5537
在该	-11.5537
ka	-11.5539
疑难	-11.5542
学士学位	-11.5542
的土地	-11.5542
周围的	-11.5543
从业	-11.5545
冉	-11.5546
该剧	-11.5547
办公用品	-11.5548
没关系	-11.5549
美妙	-11.555
狭窄	-11.555
破产	-11.5551
不服	-11.5551
嫂	-11.5551
的程度	-11.5552
棵	-11.5552
成为中国	-11.5554
1929	-11.5554
想问问	-11.5554
致使	-11.5555
标志着	-11.5556
获利	-11.5556
余额	-11.5557
RT	-11.5559
成长的	-11.556
叮	-11.5561
北极	-11.5561
身世	-11.5562
焚	-11.5563
本作	-11.5563
主要为	-11.5564
首付	-11.5565
动画片	-11.5566
将自己	-11.5566
奠定了	-11.5566
文史	-11.5568
更强	-11.5568
GA	-11.5569
高性能	-11.5569
各项工作	-11.5569
反驳	-11.557
阙	-11.5571
榨	-11.5571
省份	-11.5574
香气	-11.5575
多少钱	-11.5576
患有	-11.5578
的因素	-11.5578
企业和	-11.5579
创造性	-11.5579
年产	-11.558
-{	-11.558
中共中央	-11.5581
更改	-11.5582
客户提供	-11.5582
我爱	-11.5584
敢于	-11.5585
宁波市	-11.5585
细分	-11.5586
经纪人	-11.5586
又被	-11.5588
ki	-11.5588
增进	-11.5588
管理办法	-11.5588
勉强	-11.559
刷新	-11.5592
很低	-11.5593
接壤	-11.5594
文联	-11.5594
文人	-11.5595
ner	-11.5597
网络技术	-11.5597
源头	-11.5598
樟	-11.5598
楼下	-11.5598
躁	-11.56
ice	-11.56
研究室	-11.5602
创伤	-11.5603
宁县	-11.5605
共建	-11.5606
参与了	-11.5606
水量	-11.5607
跳舞	-11.5607
进军	-11.5608
清热	-11.5608
浓郁	-11.561
ight	-11.5613
学子	-11.5613
与社会	-11.5614
等多项	-11.5616
面条	-11.5617
九州	-11.562
打动	-11.5621
为她	-11.5622
亚热带	-11.5623
自私	-11.5623
魔兽	-11.5623
使用寿命	-11.5625
系统中	-11.5625
计划大力发展	-11.5626
作品中	-11.5628
搞定	-11.5628
蓝天	-11.5629
四种	-11.5629
彝族	-11.563
ea	-11.563
多变	-11.5631
NS	-11.5632
实践经验	-11.5632
一届	-11.5632
野生动物	-11.5633
各自的	-11.5634
启示	-11.5635
Sa	-11.5637
虚构	-11.5639
迁移	-11.5639
同盟	-11.5641
多重	-11.5641
机动	-11.5641
Do	-11.5641
嫉妒	-11.5643
致力	-11.5644
嘲笑	-11.5644
颐	-11.5646
哪种	-11.5646
的热情	-11.5647
上手	-11.5647
曾经的	-11.5648
配料	-11.5649
月毕业于	-11.5649
死神	-11.5649
深厚的	-11.565
如意	-11.5651
生产力	-11.5652
通车	-11.5653
投稿	-11.5654
干预	-11.5654
怎么看待	-11.5654
手臂	-11.5656
里斯	-11.5656
摧毁	-11.5659
不该	-11.5659
山药	-11.566
需要的	-11.566
优秀奖	-11.566
以及其他	-11.5661
分钟车程	-11.5661
农民收入以	-11.5662
目标是	-11.5664
魔鬼	-11.5664
远古	-11.5664
没能	-11.5665
风机	-11.5665
峡谷	-11.5666
趴	-11.5666
不失	-11.5667
化身	-11.5668
斑点	-11.5668
万桶	-11.567
次年	-11.567
绞	-11.5672
投影	-11.5672
4.2	-11.5672
拼命	-11.5675
Wi	-11.5675
名学生	-11.5679
二手车	-11.5679
的优点	-11.5681
含义	-11.5681
神圣	-11.5682
分行	-11.5683
科科长	-11.5683
六大	-11.5683
小伙伴们	-11.5684
▁首先	-11.5686
花样	-11.5689
中国人民	-11.5689
邂逅	-11.569
抗日战争	-11.569
搬迁	-11.5691
激烈的	-11.5692
去医院	-11.5692
之情	-11.5692
深情	-11.5693
的政策	-11.5694
低碳	-11.5695
左侧	-11.5695
高雅	-11.5695
大力发展	-11.5696
微微	-11.5696
html	-11.5698
健康发展	-11.5699
光荣	-11.5701
无机	-11.5701
无意	-11.5703
购房	-11.5703
眼神	-11.5704
盼	-11.5706
动力学	-11.5707
106	-11.5707
的商业	-11.5707
260	-11.5708
矿业	-11.5709
0～	-11.5713
落户	-11.5713
女方	-11.5713
钢材	-11.5713
我又	-11.5715
设施齐全	-11.5717
系列丛书	-11.5717
企图	-11.5717
▁杭州	-11.5719
位居	-11.5719
低价	-11.5721
广阔的	-11.5721
执教	-11.5722
一二	-11.5722
里亚	-11.5723
名义	-11.5724
蒸发	-11.5724
ON	-11.5724
任中共	-11.5725
ty	-11.5725
思念	-11.5725
长远	-11.5725
妾	-11.573
的美	-11.573
彼得	-11.5731
设计理念	-11.5733
拼音	-11.5733
无缝	-11.5734
毫克	-11.5738
1/2	-11.5738
万一	-11.574
板上	-11.574
土豪	-11.574
互助	-11.5741
组长	-11.5741
检修	-11.5741
建筑师	-11.5743
好用	-11.5744
片区	-11.5745
话剧	-11.5746
技术与	-11.5746
畔	-11.5746
刻画	-11.5748
商铺	-11.5748
的年轻人	-11.575
搜索引擎	-11.5751
离职	-11.5752
今晚	-11.5753
共分	-11.5755
供应链	-11.5755
二百	-11.5755
随之	-11.5756
影院	-11.5756
晋升	-11.5756
底线	-11.5756
PP	-11.5757
及应用	-11.5758
ao	-11.5758
报表	-11.5758
che	-11.5761
世代	-11.5763
滇	-11.5763
蚁	-11.5764
发扬	-11.5765
异能	-11.5766
前行	-11.5767
机票	-11.5767
.08	-11.5771
每当	-11.5772
蛾	-11.5772
原谅	-11.5774
前列腺	-11.5775
七十	-11.5775
是宋代诗人	-11.5775
你好	-11.5776
的都是	-11.5776
han	-11.5777
脾胃	-11.5778
同等	-11.5779
旅馆	-11.5779
sc	-11.5779
艰辛	-11.5781
并入	-11.5781
让读者	-11.5782
还有很多	-11.5784
不会有	-11.5784
基础设施建设	-11.5786
板材	-11.5786
着急	-11.5786
勋章	-11.5788
va	-11.5788
俄国	-11.5788
标注	-11.5789
京剧	-11.579
蹭	-11.5791
厦门市	-11.5792
少年儿童	-11.5793
吸毒	-11.5796
坯	-11.5798
弊	-11.5799
lan	-11.58
等荣誉称号	-11.58
委员会副主任	-11.5801
电影节	-11.5803
三峡	-11.5804
定量	-11.5805
瘾	-11.5805
编者	-11.5805
瓦尔	-11.5806
代理商	-11.5807
公尺	-11.5807
处女	-11.5809
猿	-11.5811
昔日	-11.5812
正宗	-11.5812
她也	-11.5813
障	-11.5814
高水平	-11.5814
各异	-11.5814
调动	-11.5814
的场景	-11.5815
姨	-11.5817
旋律	-11.5819
;4.	-11.5819
可使	-11.5821
笔试	-11.5822
德拉	-11.5823
领略	-11.5826
业内人士	-11.5826
!【	-11.5827
招收	-11.5827
专业毕业	-11.5828
副院长	-11.5829
说的是	-11.5829
循序渐进	-11.5831
锯	-11.5831
相结合的	-11.5833
事先	-11.5833
灯具	-11.5833
鸡精	-11.5834
1927	-11.5834
富豪	-11.5836
委副书记	-11.5837
并提供	-11.5837
和小	-11.5838
杀菌	-11.584
做为	-11.5841
眷	-11.5842
戊	-11.5842
人们对	-11.5842
双语	-11.5843
胚	-11.5843
好听	-11.5845
十二年	-11.5845
梦中	-11.5845
黑客	-11.5846
卖出	-11.5847
相差	-11.5847
互联	-11.585
不合	-11.585
回来了	-11.5851
诗文	-11.5851
想说	-11.5851
测评	-11.5852
威力	-11.5852
外侧	-11.5852
瓷器	-11.5852
反感	-11.5852
笔画	-11.5853
如果您有特殊要求	-11.5856
无不	-11.5858
三包	-11.5858
万能	-11.5858
会造成	-11.586
结尾	-11.5861
4.8	-11.5862
分化	-11.5863
准确的	-11.5864
一下吧	-11.5864
十多年	-11.5864
冕	-11.5865
的建筑	-11.5865
报记者	-11.5866
管制	-11.5866
最好是	-11.5866
隐患	-11.5867
笔名	-11.5868
篇章	-11.5868
辆车	-11.5869
风俗	-11.587
自在	-11.5871
选出	-11.5871
始于	-11.5872
ep	-11.5876
拙	-11.5877
是种怎样的体验	-11.5878
花纹	-11.5878
完工	-11.5879
飞行员	-11.588
的两个	-11.588
遗迹	-11.588
多万元	-11.5882
简易	-11.5883
今生	-11.5883
230	-11.5883
复古	-11.5884
学科带头人	-11.5884
多样化	-11.5885
光辉	-11.5886
福特	-11.5886
海尔	-11.5887
都觉得	-11.5888
爸爸妈妈	-11.5888
那你	-11.5888
生产能力	-11.5888
安全的	-11.5889
打造的	-11.589
星空	-11.5892
巴尔	-11.5895
An	-11.5895
倾城	-11.5896
超人	-11.5896
后人	-11.5897
先行	-11.5898
断裂	-11.5902
的有关	-11.5902
MC	-11.5903
山庄	-11.5906
也为	-11.5906
达尔	-11.5909
指甲	-11.5909
乘坐出租车约	-11.5911
围观	-11.5911
正文	-11.5912
间接	-11.5912
武汉大学	-11.5916
垒	-11.5917
变色	-11.5917
叙事	-11.5917
庭院	-11.5917
趣味性	-11.5918
质量管理	-11.5919
青睐	-11.5919
族自治县	-11.5921
落叶	-11.5922
其中的	-11.5924
打入	-11.5924
仙人	-11.5925
国籍	-11.5926
本身的	-11.5929
大学英语	-11.5929
着他	-11.593
挫	-11.593
出入	-11.5932
ock	-11.5932
着手	-11.5936
驶	-11.5936
班长	-11.5936
文中	-11.5936
嗨	-11.5936
带走	-11.5938
女演员	-11.594
滨海	-11.594
无所谓	-11.594
托管	-11.594
累积	-11.5941
后宫	-11.5942
劈	-11.5943
锤子	-11.5947
酸奶	-11.5947
综合征	-11.5947
鹿晗	-11.5948
八个	-11.5948
麻将	-11.5948
多方	-11.5948
祖籍	-11.5951
状态下	-11.5951
编写了	-11.5951
服务员	-11.5952
叶子	-11.5954
睁	-11.5954
的战斗	-11.5954
和他的	-11.5954
shi	-11.5955
让学生	-11.5956
创造力	-11.5956
五金交电	-11.5956
qq	-11.5957
要比	-11.5961
定律	-11.5962
的良好	-11.5962
的重大	-11.5962
就行	-11.5964
地球上	-11.5964
iz	-11.5964
畜牧	-11.5965
葱花	-11.5966
EUR	-11.5967
对人体	-11.5967
认识到	-11.5967
自己是	-11.5968
的合作	-11.5969
加之	-11.5969
剧团	-11.5969
高一	-11.597
面子	-11.5971
开机	-11.5971
说你	-11.5971
领土	-11.5972
有意义	-11.5973
撞击	-11.5973
1920	-11.5973
皓	-11.5977
MT	-11.5977
粉碎	-11.5977
9.9	-11.5978
辅料	-11.5979
高频	-11.5979
网吧	-11.5982
制动	-11.5983
超大	-11.5983
与之	-11.5984
批量	-11.5984
最重要的是	-11.5984
私立	-11.5986
共鸣	-11.5987
出版了	-11.5987
付费	-11.5987
综艺	-11.5989
幼虫	-11.5989
分区	-11.5989
矿物质	-11.599
写的网络小说连载于	-11.5991
仪器仪表	-11.5992
噪声	-11.5992
彤	-11.5993
du	-11.5994
维权	-11.5995
行列	-11.5997
那年	-11.5997
Si	-11.5997
制约	-11.5999
的视角	-11.6
成功地	-11.6
瞬	-11.6002
印发	-11.6003
平滑	-11.6005
野外	-11.6005
给他们	-11.6006
在英国	-11.6007
研究的	-11.6008
歌声	-11.6009
3.7	-11.6009
无形	-11.6011
享年	-11.6012
掏	-11.6012
107	-11.6013
一心	-11.6013
着你	-11.6014
有自己的	-11.6014
只能说	-11.6015
大妈	-11.6016
渍	-11.6016
存在于	-11.6017
大面积	-11.6018
15%	-11.6019
~~	-11.6019
牵引	-11.6022
巡视	-11.6022
首页	-11.6022
交通事故	-11.6023
巨头	-11.6023
III	-11.6023
生产设备	-11.6025
党政	-11.6026
绚丽	-11.6026
:(1)	-11.6027
两点	-11.6027
ル	-11.6029
科学院	-11.603
吃到	-11.6031
珍藏	-11.6032
建设的	-11.6032
突击	-11.6032
盛宴	-11.6033
1900	-11.6033
不代表	-11.604
农民收入主要以	-11.6041
▁黄	-11.6041
展望	-11.6041
也比较	-11.6042
花朵	-11.6042
呐	-11.6044
(7	-11.6046
垣	-11.6046
创造出	-11.6047
解开	-11.6047
▁X	-11.6048
Li	-11.6049
之事	-11.6052
115	-11.6052
运河	-11.6053
庄园	-11.6053
前身是	-11.6053
政策和	-11.6054
the	-11.6055
三四	-11.6055
最初的	-11.6055
Th	-11.6055
姿态	-11.6056
意向	-11.6058
干货	-11.6058
1928	-11.606
CI	-11.6062
缴费	-11.6063
经济开发区	-11.6063
防腐	-11.6065
工序	-11.6066
封印	-11.6067
屋顶	-11.6069
有效期	-11.607
毛病	-11.6071
明白了	-11.6072
理论上	-11.6074
委宣传部	-11.6078
脓	-11.6079
企业提供	-11.6081
一词	-11.6081
黑板报	-11.6084
加强对	-11.6086
窗户	-11.6086
回族	-11.6087
固定资产	-11.6088
她却	-11.6088
刚才	-11.6088
学院教授	-11.609
mon	-11.609
茄	-11.609
红颜	-11.6091
拢	-11.6095
饱和	-11.6096
技术支持	-11.6096
一起去	-11.6096
cc	-11.6097
当局	-11.6099
的国际	-11.61
~~~	-11.6103
的综合性	-11.6105
死于	-11.6105
可是我	-11.6105
得到的	-11.6106
便捷的	-11.6106
扁平	-11.6106
大选	-11.6107
尊严	-11.6108
芬兰	-11.6109
播放器	-11.6109
委组织部	-11.611
最适合	-11.611
简明	-11.6111
收拾	-11.6111
长沙市	-11.6112
别说	-11.6115
创业板	-11.6115
无色	-11.6116
静静	-11.6116
不一	-11.6116
这里是	-11.6117
手感	-11.6118
意境	-11.6118
结构的	-11.6118
颁奖	-11.6119
惑	-11.6121
合肥市	-11.6121
另外一个	-11.6122
保湿	-11.6123
仇恨	-11.6124
自然村	-11.6124
ance	-11.6126
炒作	-11.6126
He	-11.6126
共识	-11.6127
人参	-11.6128
吃货	-11.6129
人民日报	-11.6129
ite	-11.6129
建立起	-11.6129
问他	-11.6131
西医	-11.6133
独有的	-11.6133
中央党校	-11.6134
招商引资	-11.6135
不明显	-11.6136
特别的	-11.6137
布尔	-11.6138
传闻	-11.6138
视线	-11.6138
树种	-11.6138
音乐会	-11.6139
只是想	-11.6139
芒果	-11.614
州刺史	-11.6141
陕	-11.6141
夺冠	-11.6142
句话	-11.6145
定点	-11.6146
甲状腺	-11.6146
在同一	-11.6148
后被	-11.6149
荧光	-11.6149
所以在	-11.6151
5.2	-11.6153
前三	-11.6153
油气	-11.6154
叫我	-11.6155
否	-11.6155
以北	-11.6156
甘草	-11.6156
还是会	-11.6157
称赞	-11.6158
So	-11.6159
平面设计	-11.6161
潮湿	-11.6162
资本主义	-11.6164
璧	-11.6165
和中国	-11.6166
文革	-11.6166
阐释	-11.6167
确立	-11.6167
寓	-11.6167
鳍	-11.6167
埠	-11.6168
↓	-11.6168
但是他	-11.617
借口	-11.6171
的特征	-11.6171
有两种	-11.6174
而去	-11.6174
俭	-11.6175
屑	-11.6175
死刑	-11.6177
nn	-11.6177
芸	-11.6177
压抑	-11.6179
汉语词汇	-11.6179
一族	-11.618
七月	-11.6181
昆山	-11.6181
会让你	-11.6181
系统集成	-11.6185
清爽	-11.6185
被困	-11.6185
孩	-11.6185
代表团	-11.6188
戎	-11.6188
糖果	-11.6188
的工具	-11.6189
Di	-11.6189
开幕式	-11.619
义务教育	-11.619
绝大部分	-11.6191
API	-11.6191
丞	-11.6193
365	-11.6194
不稳定	-11.6194
研究生学历	-11.6194
OR	-11.6195
听取	-11.6195
市面上	-11.6195
非常重要	-11.6196
ast	-11.6197
兑换	-11.6197
至此	-11.6199
企业形象策划	-11.6199
蕴	-11.62
氯化	-11.6201
海盗	-11.6201
这篇	-11.6202
他自己	-11.6204
和一个	-11.6206
曾被	-11.6208
现代化的	-11.6209
浓厚	-11.6209
财经大学	-11.621
优质的服务	-11.6211
诅咒	-11.6211
可以把	-11.6212
的路上	-11.6213
史上最	-11.6214
最少	-11.6217
石材	-11.6217
会很	-11.6218
PO	-11.6219
鲜艳	-11.6219
顽	-11.622
受不了	-11.6223
藉	-11.6224
避开	-11.6225
南通	-11.6226
高二	-11.6227
水流	-11.6227
拽	-11.6228
EN	-11.6228
拓宽	-11.6229
▁Re	-11.6231
黄褐色	-11.6232
祖先	-11.6232
沙特	-11.6233
胡同	-11.6235
也称	-11.6235
不怎么	-11.6235
札	-11.6235
转会	-11.6236
这款游戏	-11.6236
▁is	-11.6237
率为	-11.6237
′	-11.6238
民事	-11.6238
指导和	-11.6238
布莱	-11.6238
侍郎	-11.6239
副主编	-11.624
市委常委	-11.6242
是唐代	-11.6242
的反应	-11.6243
最美的	-11.6246
配上	-11.6247
矫正	-11.6247
纸质	-11.6249
篆	-11.6249
火力	-11.6249
子弟	-11.6249
换了	-11.625
吸入	-11.625
ト	-11.6251
奢	-11.6251
吉利	-11.6251
先生的	-11.6252
发表了	-11.6253
不相	-11.6253
好吃的	-11.6254
久了	-11.6255
商务信息咨询	-11.6257
压迫	-11.6257
会说	-11.6258
名录	-11.6258
下列	-11.6258
姓氏	-11.6259
规矩	-11.6259
吃过	-11.626
泡泡	-11.6262
在路上	-11.6263
的身影	-11.6263
均价	-11.6264
奥林匹克	-11.6264
砚	-11.6264
找了	-11.6266
老爸	-11.6268
该国	-11.6268
长发	-11.6268
酒店配有游泳池	-11.6268
触及	-11.6268
快餐	-11.6268
之乡	-11.6268
▁因为	-11.627
工程项目	-11.6271
煮熟	-11.6272
是下辖的一个乡镇级行政单位	-11.6273
锁屏	-11.6274
等方式	-11.6274
的一次	-11.6274
清醒	-11.6274
家境	-11.6276
比分	-11.6276
日讯	-11.6276
奴隶	-11.6278
考试大纲	-11.6278
身体健康	-11.6279
肘	-11.628
定理	-11.628
卖家	-11.628
谈到	-11.628
这只	-11.6281
副总经理	-11.6282
粤语	-11.6284
第二季	-11.6284
经验的	-11.6285
他曾	-11.6285
干旱	-11.6285
说要	-11.6286
▁其实	-11.6286
绽放	-11.6286
-17	-11.6287
全过程	-11.6288
苏格兰	-11.6288
内侧	-11.6288
▁be	-11.6289
罕见	-11.6291
是一道美食	-11.6291
基准	-11.6292
仅为	-11.6293
宽敞	-11.6293
现实的	-11.6294
中的应用	-11.6294
专业技术人员	-11.6294
谈话	-11.6295
爱情的	-11.6295
乖	-11.6297
争论	-11.6298
样子	-11.6298
能使	-11.6299
su	-11.6301
外交部	-11.6302
花柱	-11.6303
——“	-11.6303
一刻	-11.6303
全套	-11.6304
天内	-11.6304
在那	-11.6305
荚	-11.6305
瘦身	-11.6306
下次	-11.6308
内蒙古自治区	-11.6308
和朋友	-11.6308
末日	-11.631
用自己的	-11.631
海绵	-11.6313
笔记本电脑	-11.6314
病例	-11.6315
全线	-11.6316
点缀	-11.6316
左右的	-11.6317
咪	-11.6317
纳税人	-11.6321
合唱	-11.6324
两端	-11.6325
完全没有	-11.6326
奋	-11.6326
亦称	-11.6326
细长	-11.6327
4.7	-11.6327
影响力的	-11.6329
刊登	-11.6329
眼科	-11.6331
就觉得	-11.6333
到来	-11.6334
那样的	-11.6335
布朗	-11.6335
莆田	-11.6336
学生们	-11.6337
项目管理	-11.634
lt	-11.634
104	-11.634
坚信	-11.6341
快乐的	-11.6341
因为她	-11.6341
逃脱	-11.6341
带到	-11.6342
县长	-11.6343
AL	-11.6343
知情	-11.6346
5.6	-11.6346
使用了	-11.6346
车展	-11.6346
矩阵	-11.6346
呵护	-11.6349
估值	-11.6352
纪念馆	-11.6352
尽力	-11.6352
众筹	-11.6353
比重	-11.6354
网红	-11.6355
农机	-11.6356
著称	-11.6359
教区	-11.636
掘	-11.636
(4	-11.6365
人脉	-11.6366
两句	-11.6366
高质量的	-11.6367
毒素	-11.637
抵押	-11.637
在今年	-11.6371
肠道	-11.6371
第一天	-11.6372
事务所	-11.6372
改成	-11.6372
蚊	-11.6373
的客户	-11.6375
Go	-11.6375
世上	-11.6376
這	-11.6376
谐	-11.6379
▁t	-11.638
改名为	-11.6381
但还是	-11.6382
潜艇	-11.6383
红酒	-11.6384
亮度	-11.6384
期末	-11.6384
较强的	-11.6385
穿衣	-11.6385
烛	-11.6386
通话	-11.6386
其所	-11.6387
这么说	-11.6388
新时代	-11.6388
的时候就	-11.6389
GT	-11.6389
周六	-11.639
是作者	-11.6391
委屈	-11.6393
樱桃	-11.6393
曦	-11.6393
不少人	-11.6394
净利润	-11.6397
地方政府	-11.6397
西红柿	-11.6397
拂	-11.6398
头条	-11.6398
蓝牙	-11.6399
不难	-11.64
编著的	-11.64
京都	-11.6403
的到来	-11.6403
追寻	-11.6404
方向键	-11.6405
一个大	-11.6407
森林公园	-11.6409
组委会	-11.641
的技术开发	-11.641
业有限公司	-11.6411
Ma	-11.6412
婚后	-11.6412
重点项目	-11.6414
却发现	-11.6415
这名	-11.6415
简便	-11.6416
搭档	-11.6416
嘲讽	-11.6416
更重要的是	-11.6417
NE	-11.6418
投产	-11.642
筹建	-11.642
就不能	-11.642
北侧	-11.642
漫画家	-11.6421
真的有	-11.6421
范冰冰	-11.6422
的种种	-11.6422
尼克	-11.6423
沉重	-11.6424
网络游戏	-11.6425
的粉丝	-11.6425
多万	-11.6426
其中一个	-11.6427
逼真	-11.6427
姜片	-11.6428
的思考	-11.6429
公司以	-11.643
不来	-11.6432
的评论	-11.6432
大声	-11.6432
男人的	-11.6433
大部分人	-11.6433
副会长	-11.6434
名气	-11.6434
强迫	-11.6435
搬运	-11.6435
工具书	-11.6435
细心	-11.6435
礼貌	-11.6436
薄弱	-11.6437
日元	-11.6438
高空	-11.6439
出差	-11.644
最大化	-11.644
追捧	-11.644
Ro	-11.644
光源	-11.6442
一事	-11.6442
能够在	-11.6442
贵金属	-11.6445
余项	-11.6445
皮革	-11.6448
看他	-11.645
俏	-11.645
用量	-11.645
推介	-11.6451
其实就是	-11.6451
人际关系	-11.6453
鲤	-11.6454
上面的	-11.6454
PK	-11.6455
一直都	-11.6456
龙门	-11.6456
磁场	-11.6457
老实	-11.6457
南侧	-11.6458
时任	-11.6458
臻	-11.6461
莽	-11.6461
的治疗	-11.6462
阅览室	-11.6463
宝典	-11.6464
改建	-11.6464
两部分	-11.6464
提炼	-11.6465
张专辑	-11.6465
轻微	-11.6466
完全是	-11.6466
冰冷	-11.6466
束缚	-11.6466
iPad	-11.6467
芥	-11.6467
175	-11.6469
2.9	-11.6469
纶	-11.6469
无疑是	-11.647
防晒	-11.6471
排名第	-11.6474
La	-11.6475
冰糖	-11.6476
在问答社区上	-11.6477
世界上最	-11.6477
最快	-11.6478
籍贯	-11.648
中美	-11.648
女的	-11.6481
独具	-11.6482
形式的	-11.6483
车队	-11.6484
颤	-11.6484
感激	-11.6484
乔木	-11.6485
管理模式	-11.6485
学术交流	-11.6485
杂质	-11.6487
我不想	-11.6488
Lo	-11.649
写成	-11.649
射线	-11.6491
官兵	-11.6491
被打	-11.6493
蝉	-11.6494
挫折	-11.6494
汶	-11.6494
本片	-11.6495
听了	-11.6496
tu	-11.6496
net	-11.6497
的好评	-11.6498
岁以下	-11.6499
精神病	-11.65
应邀	-11.6501
咳	-11.6502
她就	-11.6502
至尊	-11.6505
等部门	-11.6508
同样是	-11.6509
▁de	-11.6509
特产	-11.651
Linux	-11.651
俯	-11.6511
再一次	-11.6512
环比	-11.6512
初次	-11.6512
缺口	-11.6514
95%	-11.6515
从容	-11.6515
赶到	-11.6516
庄村	-11.6518
个百分点	-11.6518
也不要	-11.6521
密被	-11.6522
淤	-11.6523
市场监督管理局登记成立	-11.6523
不详	-11.6524
脉冲	-11.6524
囚	-11.6525
漳州	-11.6525
这一次	-11.6526
几千	-11.6527
中国市场	-11.6527
珊瑚	-11.6528
着她	-11.6529
主线	-11.6529
冢	-11.6532
唐山	-11.6532
建筑装饰	-11.6534
.01	-11.6535
包子	-11.6535
水肿	-11.6536
竭	-11.6536
掠	-11.6538
年前的	-11.654
接受了	-11.6546
都不知道	-11.6548
率高	-11.6549
镇江	-11.6549
游玩	-11.655
中青年	-11.6552
幕后	-11.6557
月上旬	-11.6559
邻近	-11.656
再也不	-11.656
的训练	-11.6561
蔽	-11.6563
你是否	-11.6563
椰	-11.6564
不仅仅	-11.6567
9.00	-11.6567
4.6	-11.6568
下雨	-11.6568
领导小组	-11.6569
教研室	-11.6569
后世	-11.6571
北海	-11.6572
指向	-11.6572
流动性	-11.6572
开辟	-11.6573
华语	-11.6573
奥巴马	-11.6574
构图	-11.6575
首选	-11.6575
为目的	-11.6576
胖子	-11.6576
易学	-11.6578
修仙	-11.6579
的条件	-11.6579
り	-11.6579
一碗	-11.658
这部电影	-11.6582
的色彩	-11.6582
蹦	-11.6583
了起来	-11.6584
办公楼	-11.6584
种植业	-11.6585
6.8	-11.6585
峰会	-11.6586
的读者	-11.6586
特区	-11.6587
写真	-11.6587
来做	-11.6588
据介绍	-11.6588
背鳍	-11.6589
尊敬	-11.6589
茄子	-11.659
岁以上	-11.659
剩下	-11.6591
备份	-11.6592
特工	-11.6593
迹象	-11.6593
的事实	-11.6593
一分	-11.6593
转入	-11.6594
短时间内	-11.6594
铁路局	-11.6595
周岁	-11.6595
量大	-11.6596
新版	-11.6596
预言	-11.6596
副作用	-11.6597
我们也	-11.6601
pp	-11.6601
全能	-11.6601
道光	-11.6604
3.4	-11.6604
翔实	-11.6607
当她	-11.6608
自主研发	-11.6608
会给	-11.6609
泗	-11.6612
广电	-11.6614
堆积	-11.6614
颌	-11.6616
市场需求	-11.6616
洁净	-11.6618
○	-11.6618
茵	-11.6619
电厂	-11.6619
也非常	-11.6619
这些都是	-11.662
臀	-11.662
一向	-11.662
遵	-11.662
102	-11.6621
几点	-11.6622
用户体验	-11.6623
金庸	-11.6623
卷入	-11.6625
实名	-11.6625
全镇	-11.6626
子房	-11.6626
过着	-11.6626
岁以下的儿童加	-11.6627
超高	-11.6627
焕	-11.6627
安定	-11.663
这辈子	-11.663
的主	-11.6634
于一身	-11.6635
▁马	-11.6635
身处	-11.6637
趾	-11.6637
父子	-11.6637
的车	-11.6639
绘图	-11.664
委员会主任	-11.6642
忙碌	-11.6644
人畜混居的农户	-11.6644
土木	-11.6645
稠	-11.6646
那个时候	-11.6646
一些人	-11.6647
的根本	-11.6647
凡是	-11.6648
滑动	-11.665
Con	-11.6651
玩耍	-11.6652
屏蔽	-11.6653
现代人	-11.6654
产地	-11.6654
越野	-11.6654
发展到	-11.6654
变得更	-11.6655
连载于	-11.6655
京城	-11.6655
沸	-11.6656
触发	-11.6658
翌年	-11.6658
不佳	-11.6658
没必要	-11.6658
切除	-11.666
的新闻	-11.666
天子	-11.666
融化	-11.666
岐	-11.666
等诸多	-11.6662
nc	-11.6662
卫生部	-11.6663
乾坤	-11.6666
较强	-11.6666
服役	-11.6667
变异	-11.6667
陆地	-11.6668
port	-11.6669
的品质	-11.667
五代	-11.6671
人民出版社出版的图书	-11.6671
孙子	-11.6671
碘	-11.6676
四月	-11.6677
地主	-11.6677
知名品牌	-11.6678
天王	-11.6678
格外	-11.6678
校内	-11.6678
保罗	-11.6679
到期	-11.668
无名	-11.668
逆转	-11.668
淋巴	-11.6681
园艺	-11.6682
脑洞	-11.6685
饼干	-11.6686
天鹅	-11.6686
格拉	-11.6688
合作社	-11.6688
流出	-11.6688
开发者	-11.6689
的成员	-11.6689
店里	-11.6689
5.8	-11.669
而来的	-11.6693
了多少	-11.6694
ide	-11.6694
每个月	-11.6695
痘痘	-11.6696
地势	-11.6697
万余	-11.6698
英超	-11.6699
待用	-11.6699
苗木	-11.6699
就行了	-11.67
值班	-11.6701
剁	-11.6701
VIP	-11.6701
们都	-11.6703
支持下	-11.6703
归属	-11.6705
留下的	-11.6707
架空	-11.6708
换成	-11.6708
破裂	-11.6712
扭曲	-11.6713
?-	-11.6714
人力资源管理	-11.6714
史记	-11.6715
服务商	-11.6715
4.3	-11.6715
人品	-11.6716
落下	-11.6717
留给	-11.6717
为国家	-11.6717
大幅度	-11.6719
目前在	-11.672
萱	-11.6721
line	-11.6721
苞	-11.6721
声称	-11.6722
领导者	-11.6722
检察院	-11.6723
-13	-11.6723
韶	-11.6723
喜欢你	-11.6724
离去	-11.6724
大专学历	-11.6724
可以是	-11.6728
诵	-11.6728
本来就	-11.6729
文化传播有限公司	-11.6729
月起	-11.6729
不仅可以	-11.6731
河口	-11.6734
公布了	-11.6736
httpwww	-11.6736
部门的	-11.6737
圣母	-11.6737
很快就	-11.6739
笑着	-11.674
分享一下	-11.674
跋	-11.674
谁都	-11.6741
主要由	-11.6741
农田	-11.6742
头顶	-11.6742
国土	-11.6743
战后	-11.6743
办公室副主任	-11.6744
开盘	-11.6744
333	-11.6745
不知不觉	-11.6746
文学家	-11.6746
十余年	-11.6747
树林	-11.6748
的认知	-11.6749
对付	-11.675
▁江苏	-11.6751
猴子	-11.6752
来袭	-11.6753
拿出来	-11.6753
磨损	-11.6754
参谋	-11.6755
工委	-11.6755
构筑	-11.6756
流失	-11.6758
信息的	-11.6759
3500	-11.6762
裙子	-11.6762
回到了	-11.6764
天线	-11.6768
阵地	-11.6768
文学奖	-11.677
卫浴	-11.6771
盗窃	-11.6772
安娜	-11.6775
两部	-11.6775
嘉靖	-11.6775
恰当	-11.6775
洗衣	-11.6776
人死亡	-11.6776
泾	-11.6777
按规定	-11.6777
公安部	-11.6778
gu	-11.6778
小品	-11.6779
子孙	-11.6782
周二	-11.6782
晚间	-11.6782
苟	-11.6782
佳作	-11.6783
的书籍	-11.6784
徘徊	-11.6785
管理学	-11.6786
巡逻	-11.6787
冰雪	-11.6787
不尽	-11.6788
王妃	-11.679
喜爱的	-11.6791
世俗	-11.6792
电动机	-11.6793
的节奏	-11.6794
可选	-11.6794
骚扰	-11.6794
航母	-11.6794
撸	-11.6795
首尔	-11.6796
立项	-11.6799
内心的	-11.6799
投降	-11.6799
销售额	-11.68
校舍	-11.68
杨幂	-11.6801
前置	-11.6801
放开	-11.6801
熬夜	-11.6802
芙蓉	-11.6805
已是	-11.6805
微观	-11.6805
萼	-11.6806
金黄色	-11.6807
++	-11.6807
冰川	-11.6807
的姑娘	-11.6807
靶	-11.6807
合影	-11.6807
服务体系	-11.6808
实地	-11.6809
搜狐汽车	-11.6809
拍的	-11.6809
溃	-11.681
全都	-11.681
生活中的	-11.6812
巴基斯坦	-11.6812
25%	-11.6813
驾车	-11.6813
跟她	-11.6815
每亩	-11.6815
网址	-11.6816
很明显	-11.6817
儒家	-11.6817
书法家	-11.6817
内在	-11.6818
out	-11.6819
并不能	-11.6819
肾脏	-11.682
用到	-11.6821
布里	-11.6821
的学术	-11.6821
图为	-11.6822
扛	-11.6822
年少	-11.6822
哥伦比亚	-11.6823
畅通	-11.6823
怎样才能	-11.6826
有价值的	-11.6827
纯正	-11.6827
外貌	-11.6827
AB	-11.6828
政委	-11.6828
成交量	-11.6828
课堂教学	-11.6828
猫咪	-11.6829
你所	-11.6831
现效力于	-11.6832
使他	-11.6832
CR	-11.6835
贬值	-11.6835
先天	-11.6836
ana	-11.6836
外围	-11.6836
献给	-11.6837
严禁	-11.6838
古籍	-11.6838
什么叫	-11.6839
骨科	-11.6839
衔	-11.684
相近	-11.6841
不胜	-11.6841
口岸	-11.6843
下面的	-11.6845
广大读者	-11.6847
特定的	-11.6848
圣诞	-11.6849
人身	-11.6849
图表	-11.6849
為	-11.6851
东汉	-11.6851
都是在	-11.6852
直流	-11.6852
的一大	-11.6854
省道	-11.6855
慕容	-11.6856
我希望	-11.6857
精良	-11.6858
职业技术学院	-11.6859
这张卡	-11.6861
有限的	-11.6863
抬头	-11.6864
十五年	-11.6865
还有什么	-11.6865
ies	-11.6866
玄幻小说	-11.6867
▁for	-11.6868
黑道	-11.6868
CAD	-11.687
气血	-11.687
申请人	-11.6871
就不要	-11.6872
透视	-11.6875
SC	-11.6876
ust	-11.6876
5-6	-11.6877
行政执法	-11.6878
速率	-11.6879
枢	-11.6879
吸取	-11.688
最喜欢	-11.6881
设立的	-11.6883
我是一个	-11.6883
的资料	-11.6884
首饰	-11.6884
创办于	-11.6885
出炉	-11.6886
保管	-11.6887
波罗	-11.6887
潜心	-11.6888
学说	-11.6889
科研工作	-11.6889
没用	-11.6889
行业内	-11.689
微波炉	-11.6891
但她	-11.6891
小幅	-11.6891
的广告	-11.6892
是国家	-11.6893
沼	-11.6894
▁深圳	-11.6895
的思维	-11.6896
牛仔	-11.6897
规划设计	-11.6897
不应	-11.6899
拿来	-11.6901
旅游业	-11.6902
壁画	-11.6902
广阔	-11.6902
系主任	-11.6902
已经开始	-11.6903
羽毛	-11.6908
隆重	-11.6909
炙	-11.691
本教材	-11.6911
梢	-11.6911
忠实	-11.6913
出一个	-11.6913
消费者的	-11.6914
走廊	-11.6915
怎么会	-11.6916
办案	-11.6916
自如	-11.6917
发展方向	-11.6917
规划和	-11.6918
一瞬间	-11.6918
不只是	-11.692
总督	-11.692
珠江	-11.692
手绘	-11.6921
还包括	-11.6921
的英雄	-11.6922
;(3)	-11.6924
人均高稳产农田地面积	-11.6924
希尔	-11.6925
盆地	-11.6925
烯	-11.6926
展览会	-11.6928
tor	-11.6928
克莱	-11.6928
國	-11.6929
膝盖	-11.6929
也只是	-11.6929
夏日	-11.693
▁这个	-11.693
巨星	-11.693
科主任	-11.6931
一对一	-11.6932
右边	-11.6935
瘫	-11.6935
调侃	-11.6936
专业性	-11.6936
改名	-11.6938
步枪	-11.6938
宝宝的	-11.6939
cl	-11.6939
中国社会科学院	-11.694
获得者	-11.694
女星	-11.6941
纺织品	-11.6941
出生在	-11.6941
不要太	-11.6941
友人	-11.6942
受众	-11.6945
中心主任	-11.6946
穷人	-11.6947
一张加床收费是每人每夜	-11.6947
最后一个	-11.6948
为主体	-11.6949
1/3	-11.6951
ei	-11.6952
严格按照	-11.6952
.11	-11.6953
误区	-11.6954
可以根据	-11.6954
的神秘	-11.6957
高点	-11.6957
培训教材	-11.6957
茹	-11.6958
主板	-11.6958
前卫	-11.696
▁山东	-11.696
GL	-11.696
时而	-11.696
厌恶	-11.6962
表达了	-11.6965
文库	-11.6968
工业园区	-11.6968
交错	-11.6968
私募	-11.6969
固化	-11.6969
新生儿	-11.6969
定为	-11.6969
左边	-11.697
九月	-11.6971
副市长	-11.6971
ds	-11.6973
器械	-11.6974
取名	-11.6975
试着	-11.6976
出众	-11.6976
嵌	-11.6978
青海省	-11.6979
ah	-11.6979
人口变化图示	-11.6981
寺庙	-11.6982
惊悚	-11.6983
行使	-11.6984
多头	-11.6984
读研	-11.6985
治病	-11.6986
成份	-11.6986
迷人	-11.6987
–	-11.6988
480	-11.6988
名额	-11.6989
憋	-11.699
基本理论	-11.699
的范围	-11.699
▁4.	-11.699
超声	-11.6991
佛山市	-11.6991
声乐	-11.6992
应聘	-11.6993
真情	-11.6993
总收入	-11.6994
年全国	-11.6994
执导的	-11.6994
一律	-11.6994
旺盛	-11.6995
购物中心	-11.6995
闺	-11.6996
当晚	-11.6997
麻辣	-11.6998
年华	-11.6998
自豪	-11.6998
穿梭	-11.7004
前身为	-11.7004
的内心	-11.7004
纯洁	-11.7005
捷克	-11.7007
;6、	-11.7008
电量	-11.7011
这些问题	-11.7011
目前的	-11.7012
向东	-11.7012
高品质的	-11.7013
疯狂的	-11.7013
鲜活	-11.7013
网讯	-11.7015
涧	-11.7015
满分	-11.7016
丰厚	-11.7018
:10	-11.7019
国土资源	-11.7019
中断	-11.702
几分钟	-11.702
丽江	-11.7023
景象	-11.7025
说得	-11.7028
几乎没有	-11.7028
第六届	-11.7029
中饰演	-11.7029
有无	-11.703
Po	-11.703
支气管	-11.703
琉璃	-11.7031
两张	-11.7031
斯顿	-11.7031
雨水	-11.7031
等产品	-11.7031
遇到过	-11.7033
精致的	-11.7034
产品研发	-11.7034
读过	-11.7034
证监会	-11.7035
所学	-11.7035
战斗机	-11.7037
止痛	-11.7038
坎坷	-11.7038
监视	-11.7039
成像	-11.7039
应付	-11.704
太高	-11.704
散热	-11.7041
丘陵	-11.7041
Apple	-11.7042
括	-11.7043
ial	-11.7043
明确的	-11.7043
全村参加农村社会养老保险	-11.7044
的少女	-11.7044
个行政村	-11.7044
空气中	-11.7046
也无法	-11.7046
▁美国	-11.7047
学堂	-11.7047
芋	-11.7047
篇幅	-11.7047
?”“	-11.7048
好坏	-11.7049
了一场	-11.705
可以帮助	-11.705
就可	-11.705
双眼	-11.7051
生平	-11.7051
当年的	-11.7054
熟知	-11.7056
巴拉	-11.7057
处方	-11.7058
市工商行政管理局	-11.7059
为我们	-11.7059
对该	-11.706
专线	-11.706
一侧	-11.7061
-200	-11.7062
掷	-11.7062
遍及	-11.7063
试剂	-11.7064
闪电	-11.7064
侄	-11.7066
川普	-11.7067
碳酸	-11.7067
足协	-11.7067
清澈	-11.7068
推销	-11.7068
立足于	-11.7068
投身	-11.7069
这么多年	-11.7069
这三	-11.7069
师大	-11.707
步兵	-11.707
高职	-11.7071
家里的	-11.7071
一部小说	-11.7072
德州	-11.7073
垦	-11.7075
弹簧	-11.7076
蕊	-11.7077
片子	-11.7079
fe	-11.7081
伪装	-11.7081
生长于海拔	-11.7082
疑似	-11.7082
新编	-11.7082
国有企业	-11.7083
自律	-11.7085
母婴	-11.7085
成年人	-11.7086
印花	-11.7086
功能的	-11.7087
▁浙江	-11.7088
过大	-11.7088
突出贡献	-11.709
的言论	-11.709
北京师范大学	-11.7091
高标准	-11.7093
日线	-11.7095
贫穷	-11.7096
最受	-11.7096
话语	-11.7096
婚纱	-11.7097
浦东	-11.7099
君主	-11.71
的自然	-11.7103
的愿望	-11.7103
文化部	-11.7103
以下的	-11.7103
耸	-11.7103
编纂	-11.7103
Ex	-11.7104
6.0	-11.7104
不论是	-11.7106
肯定会	-11.7107
瘀	-11.7107
失恋	-11.7107
用车	-11.7107
挽回	-11.7107
坚果	-11.7108
主教	-11.7109
大连市	-11.711
▁关于	-11.7111
中队	-11.7114
丛林	-11.7115
粪	-11.7115
举办了	-11.7115
个自然村	-11.7115
杰克	-11.7116
ou	-11.7116
配电	-11.7117
7.6	-11.7117
企业发展	-11.7118
塌	-11.7119
所需要的	-11.7119
绒毛	-11.712
都非常	-11.7121
日常工作	-11.7121
甲醛	-11.7122
肠胃	-11.7124
人情	-11.7125
学生会	-11.7126
细小	-11.7126
亲手	-11.7126
本是	-11.7127
宝贵的	-11.7128
襄阳	-11.7128
商业模式	-11.7129
连载的一部	-11.7129
周三	-11.713
减速	-11.713
都已经	-11.713
田间	-11.7131
月球	-11.7131
票据	-11.7132
主要以粘贴公告	-11.7133
全书共分	-11.7133
鞘	-11.7134
▁南京	-11.7134
健脾	-11.7134
体长可达	-11.7136
二世	-11.7136
OO	-11.7137
一般都	-11.7137
经营者	-11.7138
星辰	-11.7138
女人的	-11.7138
鄙视	-11.7139
毛衣	-11.7139
相思	-11.7139
上层	-11.714
抵制	-11.7143
为己任	-11.7144
厚重	-11.7144
解剖	-11.7145
少见	-11.7146
众所周知	-11.7146
温暖的	-11.7146
曼联	-11.7148
借款	-11.7148
这是个	-11.7149
主教练	-11.715
年鉴	-11.715
210	-11.7151
萝莉	-11.7154
涂抹	-11.7154
光伏	-11.7156
武警	-11.7157
故名	-11.7157
技师	-11.7157
拖动	-11.7158
虽然我	-11.7158
有一点	-11.7158
的实力	-11.7158
组成部分	-11.7158
逃出	-11.7158
的物质	-11.7159
惊人的	-11.716
拥有一支	-11.7161
战争中	-11.7161
省钱	-11.7162
统一的	-11.7163
拖拉机	-11.7164
墙面	-11.7165
研讨	-11.7166
再加	-11.7167
相关负责人	-11.7169
体操	-11.717
全国优秀	-11.717
有很大的	-11.717
Ca	-11.7171
天道	-11.7171
享受到	-11.7172
Vi	-11.7174
了一批	-11.7174
一生的	-11.7174
两地	-11.7175
赛场	-11.7176
领悟	-11.7178
创立于	-11.7178
启迪	-11.718
学问	-11.7181
大牛	-11.7181
威海	-11.7181
主要负责	-11.7182
流派	-11.7182
需要注意	-11.7184
他认为	-11.7184
为背景	-11.7184
上图	-11.7184
根源	-11.7185
发言人	-11.7187
星系	-11.7188
资本市场	-11.719
集中在	-11.719
缺失	-11.719
嘿嘿	-11.7191
心底	-11.7191
蚂蚁	-11.7191
六级	-11.7192
经济社会发展	-11.7192
骑行	-11.7192
做空	-11.7193
Se	-11.7194
详解	-11.7196
同仁	-11.7196
理学	-11.7196
全局	-11.7197
古装	-11.7197
结石	-11.7197
崇尚	-11.7199
助学	-11.7199
月刊	-11.7199
擅	-11.7199
觉醒	-11.7199
曾是	-11.72
提到的	-11.7201
限量	-11.7201
9000	-11.7201
环形	-11.7202
余亩	-11.7202
首先是	-11.7204
他们都	-11.7204
足球队	-11.7204
市人	-11.7205
LI	-11.7205
喜悦	-11.7205
器具	-11.7205
勇于	-11.7206
波尔	-11.7206
在广州	-11.7207
试用	-11.7208
党校	-11.7208
御史	-11.7208
世纪的	-11.7212
机械制造	-11.7213
投入使用	-11.7214
宝贵	-11.7214
用户提供	-11.7214
前身	-11.7216
亢	-11.7216
能把	-11.7216
名片	-11.7217
升降	-11.7217
皇上	-11.7217
海边	-11.7217
规程	-11.7218
的能量	-11.7218
重症	-11.7218
7.8	-11.7219
的制作	-11.722
光谱	-11.722
乙醇	-11.722
可容纳	-11.7223
其中有高稳产农田地面积	-11.7224
hy	-11.7224
食盐	-11.7226
国民经济	-11.7227
BOSS	-11.7228
露台	-11.7229
的巨大	-11.7229
机能	-11.7231
清晨	-11.7231
饺子	-11.7232
之间的关系	-11.7232
中途	-11.7233
的美丽	-11.7234
会把	-11.7234
四人	-11.7234
山谷	-11.7235
常务副	-11.7236
那位	-11.7236
捐款	-11.7238
感觉很	-11.724
史诗	-11.7242
只在	-11.7242
华丽的	-11.7242
衣物	-11.7243
周四	-11.7244
对孩子	-11.7244
队伍建设	-11.7245
数据分析	-11.7245
拉伸	-11.7246
美感	-11.7246
118	-11.7248
胃肠	-11.7248
造诣	-11.7248
值得一提的是	-11.7249
独创	-11.725
等离子电视	-11.7251
知识和	-11.7251
雾霾	-11.7251
评论区	-11.7251
很长	-11.7251
act	-11.7252
马克思	-11.7253
食疗	-11.7254
方向盘	-11.7256
分销	-11.7256
犀	-11.7256
发烧	-11.7257
忍者	-11.726
贫血	-11.7261
中文系	-11.7262
走访	-11.7263
麒麟	-11.7263
村落	-11.7263
问世	-11.7263
不可以	-11.7265
一年多	-11.7265
不是一个	-11.7265
抢劫	-11.7266
闵	-11.7266
138	-11.7269
体会到	-11.7269
科技进步二等奖	-11.7271
深层	-11.7271
过年	-11.7271
万像素	-11.7271
生物技术	-11.7273
经济管理	-11.7273
市教育局	-11.7275
这么多人	-11.7275
被发现	-11.7276
杆菌	-11.7277
颇具	-11.7277
才可以	-11.7277
听见	-11.7278
男方	-11.7278
协会会员	-11.7279
之名	-11.7279
重返	-11.7282
▁2017	-11.7282
的首选	-11.7282
政府部门	-11.7284
扳	-11.7286
众多的	-11.7286
等经济林果	-11.7286
电视节目	-11.7286
苗族	-11.7287
房地产开发有限公司	-11.7289
五官	-11.7289
可行性	-11.729
分辨	-11.7292
庞大	-11.7292
公司经营范围包括生产	-11.7292
的温度	-11.7293
派遣	-11.7295
找我	-11.7295
沥	-11.7296
辞典	-11.7296
资源的	-11.7298
的青睐	-11.7299
风靡	-11.73
农民工	-11.7303
农业生产	-11.7303
导入	-11.7305
钢板	-11.7306
奢侈品	-11.7306
380	-11.7307
接触到	-11.7309
う	-11.731
偏向	-11.7311
中信	-11.7311
正式发布	-11.7313
的表情	-11.7313
ug	-11.7314
鸦	-11.7315
格调	-11.7316
有意思的	-11.7316
年以上	-11.7317
虽说	-11.7317
会会长	-11.7318
收支	-11.7319
票价	-11.7319
常有	-11.732
可以将	-11.732
目光	-11.7323
买车	-11.7323
Car	-11.7325
香料	-11.7326
经营的	-11.7326
制成的	-11.7327
方可	-11.7328
跌幅	-11.7328
终生	-11.7329
4.4	-11.7332
维度	-11.7332
魔幻	-11.7333
一朵	-11.7333
微量元素	-11.7334
生生	-11.7334
一角	-11.7334
缀	-11.7335
万人次	-11.7336
参加过	-11.7336
曾为	-11.7337
西游记	-11.7338
完全可以	-11.7338
龙头企业	-11.7339
抗病	-11.7339
洗衣机	-11.7339
奥斯	-11.7339
滋润	-11.7341
二本	-11.7341
里面有	-11.7341
舞台上	-11.7341
护照	-11.7341
浑身	-11.7342
完结	-11.7343
足迹	-11.7343
新能源汽车	-11.7343
需求的	-11.7345
应有的	-11.7346
化工产品	-11.7346
失落	-11.7347
绩	-11.7348
焯	-11.7348
免疫力	-11.7349
月参加	-11.7351
两千	-11.7353
一字	-11.7354
不知道怎么	-11.7354
pro	-11.7356
的一条	-11.7357
爱的人	-11.7358
6.6	-11.7358
产业园	-11.7359
▁一个	-11.7359
城市规划	-11.736
出版物	-11.7361
装有	-11.7361
的描述	-11.7363
步伐	-11.7363
拥有电视机农户	-11.7366
小三	-11.7367
窟	-11.7367
找回	-11.7368
笃	-11.7368
畅销书	-11.7369
装饰材料	-11.7369
切断	-11.7369
通关	-11.737
奇妙	-11.7371
5.7	-11.7371
原有的	-11.7371
即位	-11.7371
所说	-11.7372
HI	-11.7372
略有	-11.7372
内向	-11.7373
大展	-11.7375
渤海	-11.7375
ん	-11.7375
如图	-11.7377
市场经济	-11.738
我看到	-11.738
写过	-11.738
住户	-11.7382
一般人	-11.7384
简直是	-11.7387
蹄	-11.7387
纯属	-11.7389
年末	-11.739
常见病	-11.7391
的精彩	-11.7392
最主要的	-11.7392
舍友	-11.7393
190	-11.7393
快感	-11.7394
八角	-11.7395
中国企业	-11.7397
写字	-11.7397
小块	-11.7398
可能有	-11.7401
地貌	-11.7401
万达	-11.7401
躺在	-11.7403
生机	-11.7403
的逻辑	-11.7403
薪酬	-11.7404
囧	-11.7404
也算	-11.7407
打架	-11.7408
月光	-11.7408
冷藏	-11.7409
合著	-11.7411
寺院	-11.7413
腋	-11.7413
随手	-11.7413
果树	-11.7414
财运	-11.7414
事业的	-11.7414
宋朝	-11.7415
汤匙	-11.7416
打死	-11.7417
我们是	-11.7417
最优	-11.7418
卵圆形	-11.7418
作品集	-11.7419
uc	-11.742
的特性	-11.742
师父	-11.7421
芝加哥	-11.7423
将是	-11.7423
不太好	-11.7424
不相信	-11.7426
一轮	-11.7427
年上海	-11.7427
律师事务所	-11.7429
活动策划	-11.7429
男票	-11.7431
郊区	-11.7432
管理部门	-11.7432
也让	-11.7435
帮助你	-11.7436
往往是	-11.7437
被告人	-11.7438
波斯	-11.7438
动物园	-11.7439
泣	-11.744
路与	-11.7441
那段	-11.7442
世界观	-11.7442
联网	-11.7443
长辈	-11.7444
ost	-11.7444
但如果	-11.7444
ike	-11.7445
显现	-11.7445
三条	-11.7446
北区	-11.7446
一家人	-11.7447
RI	-11.7448
明治	-11.7449
靓	-11.745
首领	-11.7451
特邀	-11.7451
1-3	-11.7451
体现出	-11.7452
培训中心	-11.7453
--------------	-11.7453
为社会	-11.7455
共创	-11.7455
城墙	-11.7455
做不到	-11.7457
管理与	-11.7458
批复	-11.7459
元左右	-11.7459
主义者	-11.7459
▁杨	-11.7461
英镑	-11.7462
165	-11.7462
手下	-11.7463
匿	-11.7463
瑾	-11.7463
缘分	-11.7465
ま	-11.7465
有下午茶	-11.7465
射手	-11.7466
”——	-11.7466
读了	-11.7469
比较高	-11.747
救治	-11.747
芜湖	-11.7471
间隙	-11.7472
α	-11.7474
纵向	-11.7474
行业协会	-11.7475
钳	-11.7475
多达	-11.7476
关键是	-11.7476
俺	-11.7476
上报	-11.7476
经济技术开发区	-11.7477
匙	-11.748
DIY	-11.7481
均线	-11.7482
迄今	-11.7488
每次都	-11.7489
体现在	-11.749
饮酒	-11.7491
纸上	-11.7491
本赛季	-11.7492
来回答	-11.7492
换乘	-11.7493
局势	-11.7493
应在	-11.7493
脚下	-11.7494
支架	-11.7496
并且在	-11.7497
并能	-11.7497
就算是	-11.7497
在深圳	-11.7497
老头	-11.7498
交代	-11.7499
为导向	-11.75
竿	-11.75
镶	-11.75
三项	-11.7501
近视	-11.7502
不断创新	-11.7503
知识分子	-11.7503
等各类	-11.7504
班子	-11.7505
亲近	-11.7505
"、"	-11.7506
Be	-11.7506
润滑油	-11.7507
999	-11.7508
央	-11.7508
运势	-11.751
几乎所有	-11.7511
患者的	-11.7512
平方千米	-11.7513
很厉害	-11.7514
世博	-11.7516
自定义	-11.7517
告诉他	-11.7518
工程学院	-11.7519
图画	-11.752
动能	-11.752
抽烟	-11.752
合计	-11.752
中含有	-11.7521
游击队	-11.7521
参考价值	-11.7521
的差异	-11.7524
临沂	-11.7525
供热	-11.7527
缩写	-11.7528
戒指	-11.7528
成立以来	-11.7529
树皮	-11.7529
代表着	-11.753
六月	-11.753
嫌弃	-11.7532
下入	-11.7532
堕落	-11.7532
唉	-11.7533
的朋友们	-11.7533
Fi	-11.7534
万圣节	-11.7535
茫茫	-11.7536
最先进的	-11.7536
不合格	-11.7537
之神	-11.7537
追溯	-11.7538
1/	-11.7539
风气	-11.7539
178	-11.7539
设立了	-11.7539
核实	-11.7539
应该怎么	-11.7539
副总裁	-11.754
的敌人	-11.754
管理员	-11.7541
正式成立	-11.7541
沛	-11.7543
就医	-11.7543
▁成都	-11.7543
草案	-11.7543
父亲的	-11.7545
年至今	-11.7545
港澳	-11.7546
剧烈	-11.7547
民政	-11.7547
函授	-11.7548
gt	-11.7548
宛	-11.755
创下	-11.755
本站	-11.7551
做工	-11.7552
仍是	-11.7553
该品种	-11.7553
中山大学	-11.7553
的人群	-11.7557
请教	-11.7557
爱吃	-11.7558
的代表	-11.7558
的形成	-11.7559
迷宫	-11.7559
的现状	-11.756
可以去	-11.7562
枯燥	-11.7563
无锡市	-11.7563
里程	-11.7564
难得	-11.7564
自发	-11.7564
霄	-11.7566
朕	-11.7566
大王	-11.7567
百花	-11.7568
在地上	-11.7568
不曾	-11.7569
条件的	-11.7569
起飞	-11.7569
抚养	-11.757
无忧	-11.757
星光	-11.757
纷	-11.757
司令部	-11.7571
喙	-11.7571
配角	-11.7571
最近的	-11.7571
真菌	-11.7572
在台湾	-11.7573
组组长	-11.7577
柔和	-11.7579
交界	-11.758
博会	-11.758
僵	-11.7581
痕迹	-11.7581
团长	-11.7582
现在是	-11.7583
红薯	-11.7583
回答这个问题	-11.7586
阳性	-11.7586
VE	-11.7587
图中	-11.7587
转速	-11.7588
单品	-11.7589
心血管	-11.7589
外卖	-11.7589
登山	-11.759
的男子	-11.7591
他与	-11.7591
问了	-11.7592
还款	-11.7592
的结局	-11.7593
ms	-11.7595
省委党校	-11.7597
盛大	-11.7597
课文	-11.7598
表面上	-11.7599
政协委员	-11.7599
两三	-11.76
中方	-11.76
九江	-11.7601
增添	-11.7601
抑	-11.7601
与你	-11.7601
积极参与	-11.7601
在某	-11.7602
大卫	-11.7602
产出	-11.7602
壮观	-11.7603
毛巾	-11.7604
则为	-11.7604
相见	-11.7605
短片	-11.7605
污水处理	-11.7605
应该如何	-11.7606
战斗力	-11.7608
从而使	-11.7608
不是我	-11.7609
玄幻	-11.761
ach	-11.7611
警惕	-11.7612
考前	-11.7612
淮南	-11.7614
燃油	-11.7615
片中	-11.7617
传世	-11.7617
3.9	-11.7617
责任感	-11.7618
木耳	-11.7619
万科	-11.7621
南京大学	-11.7622
问问	-11.7622
挪	-11.7622
了我的	-11.7622
5.4	-11.7622
等国家	-11.7622
二代	-11.7623
革新	-11.7626
沃尔	-11.7626
涉外	-11.7626
竞争对手	-11.7626
组团	-11.7627
哈尔滨市	-11.7627
过高	-11.7628
大阪	-11.7632
元代	-11.7634
了很久	-11.7634
千古	-11.7635
▁女生	-11.7636
牟	-11.7636
飙	-11.7636
事业发展	-11.7637
奶茶	-11.7637
今属	-11.7638
火烧	-11.764
;3	-11.764
颠	-11.7641
か	-11.7643
商机	-11.7643
的性质	-11.7644
日出生	-11.7644
地理位置优越	-11.7645
折腾	-11.7646
保健品	-11.7646
的原理	-11.7647
敏锐	-11.7647
修饰	-11.7648
武昌	-11.7648
在微博上	-11.7649
狂欢	-11.765
编曲	-11.765
数目	-11.7653
乍	-11.7653
常绿	-11.7654
全乡	-11.7655
溶剂	-11.7655
650	-11.7657
8.8	-11.7658
篇文章	-11.7658
的错误	-11.7658
新鲜的	-11.766
部副部长	-11.7661
BB	-11.7661
马丁	-11.7662
建成后	-11.7664
致力于为	-11.7665
自治州	-11.7666
食欲	-11.7667
基本原理	-11.7668
各路	-11.767
究	-11.767
系列教材	-11.7671
资格考试	-11.7671
后裔	-11.7671
的回忆	-11.7672
金黄	-11.7672
方向的	-11.7673
秒钟	-11.7673
政党	-11.7673
网络科技有限公司	-11.7673
而过	-11.7673
ron	-11.7674
动态壁纸	-11.7675
肽	-11.7675
收养	-11.7676
利于	-11.7676
孕育	-11.7677
绿茶	-11.7678
抉择	-11.7679
不看	-11.7681
诈	-11.7682
驿	-11.7683
伴有	-11.7683
这几天	-11.7684
义乌	-11.7684
叶柄	-11.7685
这几年	-11.7685
招募	-11.7687
叙利亚	-11.7689
来进行	-11.7689
换个	-11.769
126	-11.7691
▁re	-11.7692
老爷	-11.7693
盖上	-11.7693
来回	-11.7694
渭	-11.7694
ins	-11.7694
唤	-11.7695
托福	-11.7696
股权投资	-11.7697
的重要组成部分	-11.7697
蕴含	-11.7697
等众多	-11.7698
ML	-11.7698
赛区	-11.7698
的背景	-11.7698
噪	-11.7699
网店	-11.7699
非物质文化遗产	-11.77
邢	-11.7701
勘探	-11.7704
5.3	-11.7705
药材	-11.7706
也是一个	-11.7707
玩笑	-11.7708
进场	-11.7708
副总	-11.7709
大多是	-11.7709
6.2	-11.771
了一系列	-11.7711
无辜	-11.7712
敦煌	-11.7712
▁0	-11.7714
虽然是	-11.7717
芹菜	-11.7718
为代表的	-11.7718
表皮	-11.7718
它可以	-11.7721
埔	-11.7722
半个	-11.7722
警示	-11.7722
指挥部	-11.7722
起来了	-11.7724
起源	-11.7725
中南	-11.7727
城管	-11.7727
楼高	-11.7727
本田	-11.7729
挽	-11.7729
无双	-11.773
KTV	-11.7731
选中	-11.7732
组织和	-11.7732
年代初	-11.7733
交替	-11.7735
嵌入式	-11.7735
意味	-11.7736
不爽	-11.7736
也因此	-11.7738
冲刺	-11.7738
官至	-11.7738
使学生	-11.7739
-14	-11.7739
髓	-11.7739
抗生素	-11.7739
汤汁	-11.774
的课程	-11.7741
将领	-11.7741
藕	-11.7742
top	-11.7743
的日常	-11.7744
当我们	-11.7744
展开了	-11.7746
社会保险	-11.7748
索引	-11.7748
判定	-11.7749
是基于	-11.7751
古镇	-11.7751
在世界	-11.7752
上次	-11.7753
战斗中	-11.7753
的伤害	-11.7755
教师队伍	-11.7756
绮	-11.7757
远方	-11.7758
CF	-11.7759
中科院	-11.776
还不如	-11.776
ru	-11.7762
自此	-11.7763
新闻发布会	-11.7763
;2006	-11.7763
是全国	-11.7764
孢	-11.7765
心理健康	-11.7766
鲜明的	-11.7766
诸侯	-11.7767
水深	-11.7767
每章	-11.7767
领导班子	-11.7768
不影响	-11.7768
一般在	-11.7769
亚太	-11.7769
的概率	-11.777
点儿	-11.7771
交织	-11.7772
化为	-11.7772
添加剂	-11.7772
带回	-11.7773
评比	-11.7774
倒霉	-11.7775
化学品	-11.7776
远处	-11.7776
农副产品	-11.7778
笙	-11.7779
产品自售出之日起	-11.778
哺乳	-11.778
能找到	-11.7781
筱	-11.7781
多彩	-11.7782
平县	-11.7782
保洁	-11.7783
常年外出务工人数	-11.7784
爱她	-11.7785
乳腺	-11.7785
学硕士学位	-11.7786
微商	-11.7787
矫	-11.7787
鳃	-11.7788
偏见	-11.7789
客家	-11.779
优雅的	-11.779
主干道	-11.7791
Na	-11.7791
打破了	-11.7791
不平	-11.7793
受贿	-11.7793
逛街	-11.7793
完好	-11.7794
医疗机构	-11.7794
余家	-11.7795
ld	-11.7795
淡定	-11.7797
短篇	-11.7798
(3	-11.7798
核心期刊	-11.7798
高大	-11.7798
1100	-11.7799
也可能	-11.7799
口中	-11.7799
南县	-11.78
蔓延	-11.78
恰恰	-11.78
觉得我	-11.78
瓶颈	-11.7801
奥尔	-11.7801
椎	-11.7802
撇	-11.7802
起到了	-11.7804
超过了	-11.7804
在当地	-11.7805
博览	-11.7808
估	-11.781
栓	-11.7811
的资金	-11.7811
唤醒	-11.7812
展厅	-11.7812
嘴里	-11.7813
前所未有的	-11.7813
下垂	-11.7814
怎么能	-11.7814
饵	-11.7814
拍摄的	-11.7815
剪辑	-11.7815
师兄	-11.7815
商用	-11.7815
的作品之一	-11.7816
是一部连载于	-11.7817
十多	-11.7817
专业生产	-11.7819
迪士尼	-11.7819
的新型	-11.782
大体	-11.7821
信息安全	-11.7821
歌剧	-11.7822
到底有多	-11.7822
优质服务	-11.7823
xx	-11.7823
八月	-11.7824
榕	-11.7824
日报道	-11.7825
极高的	-11.7825
ake	-11.7826
TT	-11.7827
起初	-11.7828
原先	-11.7829
楷	-11.783
想了解	-11.7831
最基本的	-11.7832
我把	-11.7833
这是一种	-11.7833
基础理论	-11.7833
套餐	-11.7834
蛛	-11.7834
督查	-11.7835
侮辱	-11.7835
哲理	-11.7837
残疾人服务等	-11.7837
战绩	-11.7837
位于中国	-11.7839
慢慢的	-11.7839
至今已	-11.7839
特拉	-11.784
桔	-11.784
你以为	-11.784
近似	-11.7842
紫外线	-11.7842
檀	-11.7842
点燃	-11.7843
水位	-11.7843
▁n	-11.7843
寝	-11.7844
霉素	-11.7846
肢体	-11.7846
能给	-11.7847
的妹子	-11.7847
(14	-11.7847
103	-11.7847
水处理	-11.7848
名列	-11.7849
的道理	-11.785
土木工程	-11.785
干脆	-11.7851
的象征	-11.7851
LL	-11.7851
用餐	-11.7851
亿元人民币	-11.7852
工程专业	-11.7852
微电影	-11.7852
南极	-11.7852
你会发现	-11.7854
和完善	-11.7856
爱恋	-11.7856
岔	-11.7856
睡前	-11.7856
难民	-11.7857
家企业	-11.7857
粉色	-11.7859
不是说	-11.7859
城市建设	-11.786
卡车	-11.7861
就得	-11.7861
山林	-11.7861
晋江文学城	-11.7862
也叫	-11.7862
李某	-11.7862
职员	-11.7864
逐年	-11.7864
演练	-11.7865
凭着	-11.7865
ov	-11.7865
宽容	-11.7866
王某	-11.7866
的传奇	-11.7866
成形	-11.7867
文化遗产	-11.7867
为主题的	-11.7867
中小学生	-11.7867
请各位	-11.7868
帮扶	-11.7868
章程	-11.7869
匆匆	-11.7869
今年的	-11.7869
▁还有	-11.7872
兵团	-11.7872
排序	-11.7872
疲	-11.7873
制定了	-11.7873
年薪	-11.7874
完成后	-11.7874
云计算	-11.7874
应用软件	-11.7874
网站上	-11.7874
汉堡	-11.7875
客场	-11.7875
增生	-11.7875
大唐	-11.7876
沧桑	-11.7876
我想说	-11.7877
往下	-11.7878
蝎	-11.7878
车载	-11.7878
相望	-11.7879
排斥	-11.7879
潇	-11.788
肩膀	-11.7881
彪	-11.7881
头晕	-11.7882
宽约	-11.7882
部分组成	-11.7882
明月	-11.7882
芹	-11.7883
实习生	-11.7884
出具	-11.7885
低下	-11.7887
性情	-11.7887
法定代表人杨	-11.7888
雍正	-11.7888
不忘	-11.7889
▁哪些	-11.7889
的一座	-11.7891
催化	-11.7891
理论知识	-11.7892
对我们	-11.7892
灵异	-11.7893
村镇	-11.7893
校级	-11.7893
基础教育	-11.7893
适度	-11.7893
傻逼	-11.7894
清凉	-11.7896
西汉	-11.7896
智利	-11.7897
解毒	-11.7898
监护	-11.7898
如果不是	-11.7899
晋江	-11.7899
科学发展观	-11.79
ara	-11.7903
ans	-11.7903
转折	-11.7905
微波	-11.7905
研究者	-11.7906
并用	-11.7908
当地时间	-11.7908
灭绝	-11.7909
等因素	-11.7909
您可在餐厅享用到传统的	-11.791
沸水	-11.791
造价	-11.7912
ase	-11.7912
芳香	-11.7913
互补	-11.7913
可以使用	-11.7914
临床工作	-11.7914
倾向于	-11.7915
盐业	-11.7915
千万别	-11.7917
的工资	-11.7918
和个人	-11.792
各个方面	-11.7921
房源	-11.7921
红豆	-11.7921
稀释	-11.7921
后面的	-11.7924
照射	-11.7924
面积为	-11.7925
一楼	-11.7925
想看	-11.7925
精湛	-11.7925
购置	-11.7925
的呢	-11.7927
面目	-11.7927
让它	-11.7928
厂长	-11.7929
与时俱进	-11.793
铃声	-11.793
7.2	-11.793
sm	-11.7931
淡淡的	-11.7931
污染物	-11.7931
拳击	-11.7932
航海	-11.7932
花药	-11.7933
成为一名	-11.7935
克里	-11.7935
合作研究	-11.7936
此地	-11.7937
ence	-11.794
欢喜	-11.7941
每一个人	-11.7943
这几个	-11.7943
场馆	-11.7943
ff	-11.7943
西班牙语	-11.7943
工业园	-11.7944
防盗	-11.7944
休闲娱乐	-11.7945
视听	-11.7946
中超	-11.7947
静电	-11.7948
不解	-11.7949
会议上	-11.795
溶于	-11.795
棒球	-11.7951
多年前	-11.7952
并称	-11.7952
GS	-11.7952
室内设计	-11.7953
墙上	-11.7955
咖啡机	-11.7956
核准	-11.7956
得太	-11.7957
溅	-11.7957
修身	-11.7959
全国性	-11.796
我跟	-11.796
人人都	-11.796
钻研	-11.796
也算是	-11.7962
大家一起	-11.7963
萎缩	-11.7963
玺	-11.7964
漳	-11.7965
雄厚的	-11.7966
fl	-11.7967
睡着	-11.7967
点半	-11.7967
秃	-11.7969
歼	-11.797
加载	-11.797
时间的	-11.7971
四面	-11.7973
严厉	-11.7973
组成员	-11.7974
这两种	-11.7974
是最好的	-11.7974
▁「	-11.7974
与实践	-11.7975
是香港	-11.7975
眼中的	-11.7976
该村截止	-11.7977
卵巢	-11.7978
灭亡	-11.7979
林地	-11.798
我身边	-11.798
那我	-11.7982
专家学者	-11.7984
将她	-11.7984
能做到	-11.7985
感性	-11.7986
线形	-11.7987
能满足	-11.7987
集聚	-11.7987
病症	-11.7987
填充	-11.7988
什么呢	-11.7988
MACD	-11.7989
全村外出务工收入	-11.7989
镍	-11.799
:2016	-11.7992
丢了	-11.7992
总结了	-11.7994
重伤	-11.7995
还有一些	-11.7998
抗体	-11.7999
秘诀	-11.7999
代表了	-11.7999
管理学院	-11.8
羌	-11.8
分册	-11.8001
他家	-11.8002
告诉我们	-11.8002
重修	-11.8004
在我看来	-11.8006
盯着	-11.8007
仑	-11.8008
主题曲	-11.8008
党中央	-11.8008
完小	-11.8009
毛孔	-11.8009
就越	-11.801
烘焙	-11.801
把自己的	-11.8012
亲身	-11.8012
举动	-11.8014
向后	-11.8014
搁	-11.8016
之夜	-11.8016
擒	-11.8016
桌上	-11.8016
良性	-11.8017
代表大会	-11.8018
的培养	-11.8018
我所	-11.8018
就是你	-11.8018
指导下	-11.802
在外面	-11.802
预包装食品	-11.8021
急诊	-11.8024
研究所所长	-11.8025
党支部书记	-11.8025
饮品	-11.8026
几张	-11.8026
如何评价	-11.8027
中型	-11.8028
艺术节	-11.8029
私信	-11.803
入伍	-11.803
放出	-11.8032
自成	-11.8033
优美的	-11.8035
升学	-11.8035
OL	-11.8036
4.9	-11.8037
广大客户	-11.8039
一朝	-11.804
所作	-11.804
每个人的	-11.8041
海滨	-11.8042
的造型	-11.8044
的人员	-11.8044
地毯	-11.8044
七八	-11.8044
韭菜	-11.8045
管理咨询	-11.8046
來	-11.8047
cu	-11.8048
极高	-11.8048
恶性	-11.8048
马铃薯	-11.8049
刻苦	-11.805
支流	-11.805
的思路	-11.8051
有能力	-11.8051
妞	-11.8053
主权	-11.8054
昕	-11.8055
中心小学	-11.8056
算了	-11.8056
顿时	-11.8056
山下	-11.8056
谓之	-11.8057
不用担心	-11.8057
导致的	-11.8058
想象的	-11.8059
lin	-11.8061
出路	-11.8062
向外	-11.8062
另类	-11.8064
长短	-11.8065
受害者	-11.8066
情境	-11.8066
专心	-11.8067
二层	-11.8069
侦察	-11.807
建制	-11.807
此刻	-11.8072
她还	-11.8072
不料	-11.8072
转为	-11.8072
光彩	-11.8074
辊	-11.8074
RPG	-11.8074
掌握了	-11.8076
本事	-11.8076
户通电	-11.8078
YY	-11.8078
经常会	-11.8079
督导	-11.808
太极拳	-11.808
广义	-11.8081
驼	-11.8081
回升	-11.8082
乞	-11.8083
的眼神	-11.8083
往返	-11.8084
负债	-11.8084
摄像机	-11.8086
恰好	-11.8087
预告	-11.8089
136	-11.8089
置业	-11.809
ys	-11.8091
衣柜	-11.8092
山峰	-11.8093
州区	-11.8093
眼光	-11.8093
指定的	-11.8093
躯	-11.8094
理工	-11.8094
出境	-11.8094
和文化	-11.8095
豁	-11.8096
平平	-11.8096
整容	-11.8097
学长	-11.8097
比你	-11.8097
-25	-11.8098
不在乎	-11.8098
进驻	-11.8099
卡罗	-11.8099
底盘	-11.81
,1984	-11.81
所以说	-11.8101
曲目	-11.8102
成长为	-11.8103
就应该	-11.8103
出战	-11.8103
政协副主席	-11.8104
电极	-11.8105
很开心	-11.8105
功底	-11.8105
一栋	-11.8107
假日	-11.8107
神州	-11.8111
是人类	-11.8112
主帅	-11.8112
bl	-11.8113
命中	-11.8113
洗手	-11.8113
未成年人	-11.8114
EIA	-11.8114
的一个重要	-11.8115
践行	-11.8115
粗壮	-11.8116
这段时间	-11.8116
的眼光	-11.8118
其作品	-11.8118
平坦	-11.8118
刁	-11.8118
做起	-11.8119
传染病	-11.8119
草本	-11.8119
三世	-11.8119
棠	-11.812
新村	-11.8122
劳动者	-11.8122
取消和预付	-11.8122
容纳	-11.8122
款政策根据各种公寓类型而有所不同	-11.8122
高管	-11.8124
有固定资产	-11.8125
打进	-11.8125
抗癌	-11.8126
南区	-11.8127
他被	-11.8129
就成了	-11.8129
挣钱	-11.813
就是为了	-11.8132
vo	-11.8132
有帮助	-11.8132
亲王	-11.8134
双人	-11.8134
约有	-11.8135
县市场监督管理局登记成立	-11.8135
身上的	-11.8137
语气	-11.8138
初级中学	-11.8138
缓缓	-11.814
中获得	-11.814
看重	-11.814
宠爱	-11.8141
一架	-11.8142
清真寺	-11.8143
谁是	-11.8143
车厢	-11.8144
血腥	-11.8145
而生	-11.8145
SK	-11.8145
公认的	-11.8146
草坪	-11.8147
气球	-11.8148
青梅竹马	-11.8149
ign	-11.8149
ct	-11.815
妹纸	-11.815
手枪	-11.8151
四海	-11.8151
跨界	-11.8151
酒店提供儿童设施	-11.8152
全缘	-11.8153
黎明	-11.8155
雄性	-11.8157
的宣传	-11.8157
读完	-11.8158
并可	-11.8158
减产	-11.8158
想不到	-11.8158
电子技术	-11.8159
周到	-11.8159
低头	-11.8159
同伴	-11.816
病因	-11.816
一味	-11.816
悠久	-11.8161
专任教师	-11.8161
中性	-11.8162
构件	-11.8163
家族的	-11.8163
被捕	-11.8163
路灯	-11.8163
采摘	-11.8164
捂	-11.8166
5.1	-11.8166
排球	-11.8167
机智	-11.8168
蘸	-11.8168
被视为	-11.8169
入味	-11.817
骤	-11.817
学院院长	-11.8171
整整	-11.8171
是他的	-11.8172
LOL	-11.8173
聪明的	-11.8173
看不见	-11.8173
布鲁	-11.8175
妖怪	-11.8175
晦	-11.8176
可信	-11.8177
展现出	-11.8177
接种	-11.8179
包括了	-11.818
谈论	-11.8181
不理	-11.8181
分析与	-11.8181
驯	-11.8182
持股	-11.8183
植被	-11.8184
谛	-11.8184
下图	-11.8184
隶	-11.8185
科尔	-11.8185
服务机构	-11.8185
站台	-11.8187
瞧	-11.8187
素有	-11.8188
也开始	-11.8188
橄榄	-11.8189
沂	-11.8189
小区物业公司为	-11.819
惧	-11.8191
收回	-11.8192
瘦肉	-11.8193
福州市	-11.8194
这篇文章	-11.8194
运行环境支持	-11.8194
专门的	-11.8196
隆起	-11.8196
一季度	-11.8197
放假	-11.8197
防汛	-11.8198
热水器	-11.82
心灵的	-11.8201
精益求精	-11.8201
Facebook	-11.8202
[...]
